{
  "version": "1.0",
  "truncation": null,
  "padding": null,
  "added_tokens": [
    {
      "id": 0,
      "content": "<pad>",
      "single_word": false,
      "lstrip": false,
      "rstrip": false,
      "normalized": false,
      "special": true
    },
    {
      "id": 1,
      "content": "<s>",
      "single_word": false,
      "lstrip": false,
      "rstrip": false,
      "normalized": false,
      "special": true
    },
    {
      "id": 2,
      "content": "</s>",
      "single_word": false,
      "lstrip": false,
      "rstrip": false,
      "normalized": false,
      "special": true
    },
    {
      "id": 3,
      "content": "<unk>",
      "single_word": false,
      "lstrip": false,
      "rstrip": false,
      "normalized": false,
      "special": true
    },
    {
      "id": 4,
      "content": "<2ar>",
      "single_word": false,
      "lstrip": false,
      "rstrip": false,
      "normalized": false,
      "special": true
    },
    {
      "id": 5,
      "content": "<2en>",
      "single_word": false,
      "lstrip": false,
      "rstrip": false,
      "normalized": false,
      "special": true
    }
  ],
  "normalizer": null,
  "pre_tokenizer": {
    "type": "ByteLevel",
    "add_prefix_space": false,
    "trim_offsets": true,
    "use_regex": true
  },
  "post_processor": null,
  "decoder": {
    "type": "ByteLevel",
    "add_prefix_space": true,
    "trim_offsets": true,
    "use_regex": true
  },
  "model": {
    "type": "BPE",
    "dropout": null,
    "unk_token": "<unk>",
    "continuing_subword_prefix": null,
    "end_of_word_suffix": null,
    "fuse_unk": false,
    "byte_fallback": false,
    "ignore_merges": false,
    "vocab": {
      "<pad>": 0,
      "<s>": 1,
      "</s>": 2,
      "<unk>": 3,
      "<2ar>": 4,
      "<2en>": 5,
      "!": 6,
      "\"": 7,
      "#": 8,
      "$": 9,
      "%": 10,
      "&": 11,
      "'": 12,
      "(": 13,
      ")": 14,
      "*": 15,
      "+": 16,
      ",": 17,
      "-": 18,
      ".": 19,
      "/": 20,
      "0": 21,
      "1": 22,
      "2": 23,
      "3": 24,
      "4": 25,
      "5": 26,
      "6": 27,
      "7": 28,
      "8": 29,
      "9": 30,
      ":": 31,
      ";": 32,
      "<": 33,
      "=": 34,
      ">": 35,
      "?": 36,
      "@": 37,
      "A": 38,
      "B": 39,
      "C": 40,
      "D": 41,
      "E": 42,
      "F": 43,
      "G": 44,
      "H": 45,
      "I": 46,
      "J": 47,
      "K": 48,
      "L": 49,
      "M": 50,
      "N": 51,
      "O": 52,
      "P": 53,
      "Q": 54,
      "R": 55,
      "S": 56,
      "T": 57,
      "U": 58,
      "V": 59,
      "W": 60,
      "X": 61,
      "Y": 62,
      "Z": 63,
      "[": 64,
      "\\": 65,
      "]": 66,
      "^": 67,
      "_": 68,
      "`": 69,
      "a": 70,
      "b": 71,
      "c": 72,
      "d": 73,
      "e": 74,
      "f": 75,
      "g": 76,
      "h": 77,
      "i": 78,
      "j": 79,
      "k": 80,
      "l": 81,
      "m": 82,
      "n": 83,
      "o": 84,
      "p": 85,
      "q": 86,
      "r": 87,
      "s": 88,
      "t": 89,
      "u": 90,
      "v": 91,
      "w": 92,
      "x": 93,
      "y": 94,
      "z": 95,
      "{": 96,
      "|": 97,
      "}": 98,
      "~": 99,
      "¡": 100,
      "¢": 101,
      "£": 102,
      "¤": 103,
      "¥": 104,
      "¦": 105,
      "§": 106,
      "¨": 107,
      "©": 108,
      "ª": 109,
      "«": 110,
      "¬": 111,
      "®": 112,
      "¯": 113,
      "°": 114,
      "±": 115,
      "²": 116,
      "³": 117,
      "´": 118,
      "µ": 119,
      "¶": 120,
      "·": 121,
      "¸": 122,
      "¹": 123,
      "º": 124,
      "»": 125,
      "¼": 126,
      "½": 127,
      "¾": 128,
      "¿": 129,
      "À": 130,
      "Á": 131,
      "Â": 132,
      "Ã": 133,
      "Ä": 134,
      "Å": 135,
      "Æ": 136,
      "Ç": 137,
      "È": 138,
      "É": 139,
      "Ê": 140,
      "Ë": 141,
      "Ì": 142,
      "Í": 143,
      "Î": 144,
      "Ï": 145,
      "Ð": 146,
      "Ñ": 147,
      "Ò": 148,
      "Ó": 149,
      "Ô": 150,
      "Õ": 151,
      "Ö": 152,
      "×": 153,
      "Ø": 154,
      "Ù": 155,
      "Ú": 156,
      "Û": 157,
      "Ü": 158,
      "Ý": 159,
      "Þ": 160,
      "ß": 161,
      "à": 162,
      "á": 163,
      "â": 164,
      "ã": 165,
      "ä": 166,
      "å": 167,
      "æ": 168,
      "ç": 169,
      "è": 170,
      "é": 171,
      "ê": 172,
      "ë": 173,
      "ì": 174,
      "í": 175,
      "î": 176,
      "ï": 177,
      "ð": 178,
      "ñ": 179,
      "ò": 180,
      "ó": 181,
      "ô": 182,
      "õ": 183,
      "ö": 184,
      "÷": 185,
      "ø": 186,
      "ù": 187,
      "ú": 188,
      "û": 189,
      "ü": 190,
      "ý": 191,
      "þ": 192,
      "ÿ": 193,
      "Ā": 194,
      "ā": 195,
      "Ă": 196,
      "ă": 197,
      "Ą": 198,
      "ą": 199,
      "Ć": 200,
      "ć": 201,
      "Ĉ": 202,
      "ĉ": 203,
      "Ċ": 204,
      "ċ": 205,
      "Č": 206,
      "č": 207,
      "Ď": 208,
      "ď": 209,
      "Đ": 210,
      "đ": 211,
      "Ē": 212,
      "ē": 213,
      "Ĕ": 214,
      "ĕ": 215,
      "Ė": 216,
      "ė": 217,
      "Ę": 218,
      "ę": 219,
      "Ě": 220,
      "ě": 221,
      "Ĝ": 222,
      "ĝ": 223,
      "Ğ": 224,
      "ğ": 225,
      "Ġ": 226,
      "ġ": 227,
      "Ģ": 228,
      "ģ": 229,
      "Ĥ": 230,
      "ĥ": 231,
      "Ħ": 232,
      "ħ": 233,
      "Ĩ": 234,
      "ĩ": 235,
      "Ī": 236,
      "ī": 237,
      "Ĭ": 238,
      "ĭ": 239,
      "Į": 240,
      "į": 241,
      "İ": 242,
      "ı": 243,
      "Ĳ": 244,
      "ĳ": 245,
      "Ĵ": 246,
      "ĵ": 247,
      "Ķ": 248,
      "ķ": 249,
      "ĸ": 250,
      "Ĺ": 251,
      "ĺ": 252,
      "Ļ": 253,
      "ļ": 254,
      "Ľ": 255,
      "ľ": 256,
      "Ŀ": 257,
      "ŀ": 258,
      "Ł": 259,
      "ł": 260,
      "Ń": 261,
      "Ø§": 262,
      "ÙĦ": 263,
      "ÙĬ": 264,
      "ĠØ": 265,
      "Ùħ": 266,
      "ÙĨ": 267,
      "Ø§ÙĦ": 268,
      "Ø±": 269,
      "ÙĪ": 270,
      "ĠØ§ÙĦ": 271,
      "Øª": 272,
      "Ġt": 273,
      "Ø©": 274,
      "Ġa": 275,
      "en": 276,
      "Ø¯": 277,
      "Ùĥ": 278,
      "Ùģ": 279,
      "ar": 280,
      "he": 281,
      "in": 282,
      "Ùĩ": 283,
      "Ø¨": 284,
      "Ø¹": 285,
      "ÙĤ": 286,
      "Ø³": 287,
      "ĠÙħ": 288,
      "Ġw": 289,
      "Ġs": 290,
      "on": 291,
      "re": 292,
      "Ø§Ø": 293,
      "ĠØ§ÙĦØ": 294,
      "Ġthe": 295,
      "er": 296,
      "ou": 297,
      "ĠØ£": 298,
      "it": 299,
      "an": 300,
      "Ġb": 301,
      "Ġc": 302,
      "at": 303,
      "ĠÙĦ": 304,
      "is": 305,
      "ĠØ¨": 306,
      "ØŃ": 307,
      "ĠÙģ": 308,
      "Ø¬": 309,
      "Ġo": 310,
      "ing": 311,
      "ĠÙĪ": 312,
      "ĠØª": 313,
      "Ġm": 314,
      "Ġp": 315,
      "Ġf": 316,
      "Ø§ÙĨ": 317,
      "or": 318,
      "Ùī": 319,
      "ed": 320,
      "es": 321,
      "ĠØ¹": 322,
      "Ġd": 323,
      "ĠÙĬ": 324,
      "ĠÙģÙĬ": 325,
      "Ġin": 326,
      "al": 327,
      "Ġh": 328,
      "ÙĬØ©": 329,
      "Ġan": 330,
      "Ø·": 331,
      "ĠØ§ÙĦÙħ": 332,
      "Ġof": 333,
      "Ġl": 334,
      "Ø§Øª": 335,
      "Ø£": 336,
      "Ġy": 337,
      "Øµ": 338,
      "as": 339,
      "ĠÙħÙĨ": 340,
      "Ġg": 341,
      "Ġto": 342,
      "ĠÙĩ": 343,
      "Ø´": 344,
      "Ø§Ø±": 345,
      "ĠÙĥ": 346,
      "ÙĬÙĨ": 347,
      "Ø®": 348,
      "om": 349,
      "Ø¶": 350,
      "Ø°": 351,
      "ÙĦÙī": 352,
      "Ġyou": 353,
      "Ġth": 354,
      "Ġand": 355,
      "Ġn": 356,
      "ll": 357,
      "ic": 358,
      "Ø²": 359,
      "ØĮ": 360,
      "le": 361,
      "ÙĪÙĨ": 362,
      "ow": 363,
      "Ø§Ùħ": 364,
      "ÙĬØ±": 365,
      "ĠØ³": 366,
      "ÙĨØ§": 367,
      "Ġis": 368,
      "Ġi": 369,
      "ot": 370,
      "et": 371,
      "Ġon": 372,
      "ion": 373,
      "ac": 374,
      "ĠØ¥": 375,
      "ve": 376,
      "st": 377,
      "ĠØ¹ÙĦÙī": 378,
      "Ø¯ÙĬ": 379,
      "Ø§Ø¡": 380,
      "Ø±ÙĬ": 381,
      "ith": 382,
      "ÙĩØ§": 383,
      "Ø«": 384,
      "ĠØŃ": 385,
      "ÙĪÙĦ": 386,
      "Ġwith": 387,
      "ĠØ§ÙĦØ£": 388,
      "Ġhe": 389,
      "ĠÙĤ": 390,
      "ent": 391,
      "Ġre": 392,
      "ro": 393,
      "Ø³Øª": 394,
      "ay": 395,
      "Øº": 396,
      "Ġst": 397,
      "ÙĪØ±": 398,
      "id": 399,
      "ĠØ¬": 400,
      "ĠÙĨ": 401,
      "ld": 402,
      "Ġe": 403,
      "ĠØ£ÙĨ": 404,
      "Ø§Ø¨": 405,
      "Ġbe": 406,
      "ÙĦÙĬ": 407,
      "Ġwh": 408,
      "ĠÙħØ¹": 409,
      "am": 410,
      "ØŁ": 411,
      "ad": 412,
      "ig": 413,
      "Ġit": 414,
      "ĠØ´": 415,
      "Ġ\"": 416,
      "ir": 417,
      "ly": 418,
      "ĠØ±": 419,
      "ÙĦÙĥ": 420,
      "ver": 421,
      "ÙħØ§": 422,
      "The": 423,
      "ÙĦØ§": 424,
      "Ġu": 425,
      "oo": 426,
      "ĠØ§ÙĦØª": 427,
      "se": 428,
      "Ø°Ø§": 429,
      "Ø¸": 430,
      "im": 431,
      "Ġwe": 432,
      "Ġwas": 433,
      "Ġfor": 434,
      "Ġr": 435,
      "ur": 436,
      "Ø§Ø¦": 437,
      "ers": 438,
      "ĠØ§ÙĦØ¹": 439,
      "and": 440,
      "Ġthat": 441,
      "ĠØ®": 442,
      "Ø¯Ø©": 443,
      "Ø¨ÙĬ": 444,
      "ch": 445,
      "ut": 446,
      "ÙĤØ¯": 447,
      "ĠÙĦÙĦ": 448,
      "Ø§ØŃ": 449,
      "Ġare": 450,
      "ĠÙĪØ§ÙĦ": 451,
      "ct": 452,
      "Ø³ÙĬ": 453,
      "Ġk": 454,
      "ĠØ§": 455,
      "Ø±Ø©": 456,
      "ĠØ¨Ø§ÙĦ": 457,
      "ĠØµ": 458,
      "ation": 459,
      "ge": 460,
      "Ø¹Ø©": 461,
      "il": 462,
      "ÙħÙĬ": 463,
      "Ġat": 464,
      "ĠØ§ÙĦØŃ": 465,
      "ĠØ°": 466,
      "Ġme": 467,
      "oun": 468,
      "ter": 469,
      "Ø¬ÙĦ": 470,
      "ÙĨÙĬ": 471,
      "out": 472,
      "ĠÙĦØ§": 473,
      "Ġsh": 474,
      "ill": 475,
      "ĠØ¯": 476,
      "igh": 477,
      "ke": 478,
      "Ġdo": 479,
      "ain": 480,
      "ont": 481,
      "ÙħÙĦ": 482,
      "ack": 483,
      "ÙĬØ§": 484,
      "ce": 485,
      "the": 486,
      "ÙĪÙħ": 487,
      "Ġfr": 488,
      "ĠS": 489,
      "all": 490,
      "ĠØ§ÙĦØ´": 491,
      "..": 492,
      "ÙĥÙĨ": 493,
      "ol": 494,
      "ÙĦÙħ": 495,
      "un": 496,
      "Ø±Ø§": 497,
      "Ø§Ø¬": 498,
      "ĠØ§ÙĦØ³": 499,
      ".\"": 500,
      "Ø¹Ø¯": 501,
      "Ġha": 502,
      "ĠØ§ÙĦØ¬": 503,
      "ĠÙĩØ°Ø§": 504,
      "op": 505,
      "Ġj": 506,
      "ĠC": 507,
      "ĠA": 508,
      "ie": 509,
      "Ġse": 510,
      "ÙĬØ¯": 511,
      "ÙĦØ©": 512,
      "Ġne": 513,
      "ÙĤØ©": 514,
      "ant": 515,
      "Ø¨Ø±": 516,
      "ĠØ¥ÙĦÙī": 517,
      "ĠI": 518,
      "ÙĨØª": 519,
      "ight": 520,
      "Ġch": 521,
      "Ġthis": 522,
      "ÙĪØ§": 523,
      "ust": 524,
      "ÙĩÙħ": 525,
      "ĠØ·": 526,
      "Ø¦": 527,
      "ome": 528,
      "ist": 529,
      "Ø±Ùģ": 530,
      "th": 531,
      "ĠØ§ÙĦÙĤ": 532,
      "Ø§ÙĨØª": 533,
      "Ġv": 534,
      "Ġnot": 535,
      "ÙĪØ¯": 536,
      "us": 537,
      "ÙħØ±": 538,
      "ul": 539,
      "Ø¥": 540,
      "ab": 541,
      "ÙĪÙĤ": 542,
      "ĠØ¹ÙĨ": 543,
      "ÙĬÙĦ": 544,
      "Ġas": 545,
      "ĠÙħØ§": 546,
      "Ġal": 547,
      "ap": 548,
      "Ø°Ùĩ": 549,
      "Ġli": 550,
      "um": 551,
      "ÙĬØª": 552,
      "ri": 553,
      "Ø±Ø¨": 554,
      "Ø³Ùħ": 555,
      "res": 556,
      "Ġgo": 557,
      "Ġpl": 558,
      "ĠØ§ÙĦÙĨ": 559,
      "Ø±Ùĥ": 560,
      "ĠØ§ÙĦØ¨": 561,
      "ĠØº": 562,
      "ĠØ§ÙĦÙĥ": 563,
      "Ġ(": 564,
      "ĠØ§ÙĦÙģ": 565,
      "ÙĬÙģ": 566,
      "Ø±Øª": 567,
      "ĠThe": 568,
      "ĠØ°ÙĦÙĥ": 569,
      "Ġde": 570,
      "ĠM": 571,
      "Ø¯Ø§": 572,
      "Ø±ÙĪ": 573,
      "ĠH": 574,
      "Ġmo": 575,
      "Ø¹ÙĦ": 576,
      "ck": 577,
      "ĠØ§ÙĦØ®": 578,
      "ĠÙĦÙħ": 579,
      "Ġby": 580,
      "ound": 581,
      "ate": 582,
      "'s": 583,
      "Ġman": 584,
      "Ġbl": 585,
      "ĠØŁ": 586,
      "Ġim": 587,
      "her": 588,
      "art": 589,
      "Ø®Øµ": 590,
      "our": 591,
      "Ø§Ø·": 592,
      "Ø§Ø¯": 593,
      "el": 594,
      "ÙĦÙģ": 595,
      "ÙħØ©": 596,
      "est": 597,
      "os": 598,
      "Ġwhat": 599,
      "ĠB": 600,
      "Ø§Ø°": 601,
      "\"\"": 602,
      "ard": 603,
      "now": 604,
      "Ġhave": 605,
      "ØªÙħ": 606,
      "Ø§Ùģ": 607,
      "Ġcom": 608,
      "ess": 609,
      "ite": 610,
      "ĠØ§ÙĦØ±": 611,
      "Ġtr": 612,
      "ÙĢ": 613,
      "pp": 614,
      "ĠØ§ÙĦØ·": 615,
      "ÙĬØ³": 616,
      "ÙĪØ¬": 617,
      "ood": 618,
      "ĠØ§ÙĨ": 619,
      "if": 620,
      "Ø§Øµ": 621,
      "Ġsu": 622,
      "ĠØªØŃ": 623,
      "Ø¹Ø¨": 624,
      "ould": 625,
      "Ġwor": 626,
      "ÙĬØ±Ø©": 627,
      "ity": 628,
      "ĠØĮ": 629,
      "ĠÙĩÙĪ": 630,
      "king": 631,
      "Ġhis": 632,
      "ĠØ§ÙĦØµ": 633,
      "Ġyour": 634,
      "ag": 635,
      "Ġro": 636,
      "Ø¹Øª": 637,
      "ĠÙĩÙĨØ§": 638,
      "Ġfrom": 639,
      "ĠT": 640,
      "Ġpro": 641,
      "ÙĥÙĦ": 642,
      "ĠP": 643,
      "ĠÙĥØ§ÙĨ": 644,
      "ĠØ£ÙĬ": 645,
      "gh": 646,
      "qu": 647,
      "ÙĪØ¨": 648,
      "ÙĤÙĬ": 649,
      "ive": 650,
      "end": 651,
      "red": 652,
      "Ø®Ø±": 653,
      "Ø¡": 654,
      "ies": 655,
      "Ġle": 656,
      "Ġor": 657,
      "ort": 658,
      "ÙħÙĨ": 659,
      "ell": 660,
      "Ġar": 661,
      "Ġmy": 662,
      "so": 663,
      "ĠØ²": 664,
      "Ġab": 665,
      "Ġno": 666,
      "ØªØŃ": 667,
      "Ġgr": 668,
      "ĠØªÙħ": 669,
      "ÙĩØ±": 670,
      "one": 671,
      "ide": 672,
      "Ġknow": 673,
      "ĠØ§ÙĦØ°": 674,
      "Ø§Ø°Ø§": 675,
      "erson": 676,
      "ØªÙĬ": 677,
      "Ġlo": 678,
      "Ġex": 679,
      "Ġso": 680,
      "ÙĥÙĪÙĨ": 681,
      "em": 682,
      "ÙĥØ§ÙĨ": 683,
      "Ġout": 684,
      "ong": 685,
      "Ġsp": 686,
      "ĠÙĩØ°Ùĩ": 687,
      "ÙħÙĪ": 688,
      "ame": 689,
      "Ġwere": 690,
      "wo": 691,
      "Ġbr": 692,
      "Ġher": 693,
      "Ø³Ø¨": 694,
      "Ġits": 695,
      "ine": 696,
      "Ġun": 697,
      "Ø±ÙĤ": 698,
      "ÙĪÙĬ": 699,
      "ĠÙĥÙĦ": 700,
      "Ø¹Ùħ": 701,
      "Ø¯ÙĬÙĨ": 702,
      "ud": 703,
      "Ġcon": 704,
      "Ø§Ø®": 705,
      "age": 706,
      "Ġup": 707,
      "ĠW": 708,
      "Ġco": 709,
      "ry": 710,
      "ting": 711,
      "ake": 712,
      "Ġback": 713,
      "Ġcan": 714,
      "Ġhas": 715,
      "ĠØ§ÙĦØ¥": 716,
      "Ġall": 717,
      "ÙĪÙģ": 718,
      "Ø±Ø¶": 719,
      "ally": 720,
      "Ø¨ÙĦ": 721,
      "ĠØªØ¹": 722,
      "ook": 723,
      "ment": 724,
      "Ø¯Ø±": 725,
      "ind": 726,
      "Ø·Ø©": 727,
      "ĠR": 728,
      "Ø§Ø«": 729,
      "Ġ\"\"": 730,
      "ÙħÙĥÙĨ": 731,
      "Ġcl": 732,
      "Ø¤": 733,
      "ĠD": 734,
      "own": 735,
      "gr": 736,
      "ass": 737,
      "iv": 738,
      "Ø¨Ø§": 739,
      "ĠØªÙĤ": 740,
      "Ġperson": 741,
      "ast": 742,
      "ue": 743,
      "ĠL": 744,
      "ough": 745,
      "ĠØ¥ÙĨ": 746,
      "ÙĪØ±Ø©": 747,
      "Ø³Ø§": 748,
      "Ġus": 749,
      "Ø§Ø²": 750,
      "ink": 751,
      "Ø³Ø©": 752,
      "ĠÙħØª": 753,
      "ect": 754,
      "ated": 755,
      "ĠØ£ØŃ": 756,
      "Ġwhite": 757,
      "ree": 758,
      "Ø¹Ø¶": 759,
      "Ġfl": 760,
      "ÙĥØª": 761,
      "ÙĪØª": 762,
      "ea": 763,
      "ĠØ³ÙĬ": 764,
      "ater": 765,
      "ild": 766,
      "Ġwom": 767,
      "ice": 768,
      "ÙģÙĬ": 769,
      "ĠØ«": 770,
      "Ø±Ø£": 771,
      "ĠÙĬØ§": 772,
      "Ø¯Ùħ": 773,
      "ØµÙĦ": 774,
      "Ġbo": 775,
      "ĠG": 776,
      "ÙĤØª": 777,
      "Ġalso": 778,
      "Ø§Ø±Ø©": 779,
      "Ġone": 780,
      "you": 781,
      "ĠØ£Ùħ": 782,
      "ÙĤØ·": 783,
      "ous": 784,
      "ure": 785,
      "Ø£ÙĨ": 786,
      "Ø¶Ø§": 787,
      "ip": 788,
      "ace": 789,
      "Ġ.": 790,
      "ĠØ¹ÙĦÙĬ": 791,
      "Ø±ÙĬÙĤ": 792,
      "ĠF": 793,
      "Ø§ÙĦÙħ": 794,
      "Ġhim": 795,
      "ore": 796,
      "ÙĪØ³": 797,
      "Ġjust": 798,
      "...": 799,
      "Ġcar": 800,
      "ĠØ£ÙĨØ§": 801,
      "Ġpr": 802,
      "Ġshe": 803,
      "ÙĥØ±": 804,
      "ther": 805,
      "very": 806,
      "Ġdid": 807,
      "Ø§Ø¶": 808,
      "ian": 809,
      "Ġtwo": 810,
      "ia": 811,
      "ear": 812,
      "Ġdont": 813,
      "ÙĪØŃ": 814,
      "ĠÙĬÙĤ": 815,
      "ĠÙħØŃ": 816,
      "cc": 817,
      "Ø¹ÙĬ": 818,
      "hat": 819,
      "ĠÙĩÙĦ": 820,
      "ĠÙĬØŃ": 821,
      "ach": 822,
      "Ø¯ÙĬØ¯": 823,
      "ark": 824,
      "Ġget": 825,
      "der": 826,
      "Ġpe": 827,
      "ĠE": 828,
      "ĠØ¨ÙĬ": 829,
      "Ø¸Ø±": 830,
      "ra": 831,
      "ĠÙĦÙĬ": 832,
      "ĠÙĩÙĬ": 833,
      "ÙĩÙĦ": 834,
      "ĠØ¢": 835,
      "ÙĪÙĥ": 836,
      "ount": 837,
      "ĠØ§Ø³Øª": 838,
      "ÙģØª": 839,
      "ÙĦØ¨": 840,
      "Ġhere": 841,
      "Ġright": 842,
      "ÙĦÙĤ": 843,
      "ff": 844,
      "able": 845,
      "Ġlike": 846,
      "Ø§Ø´": 847,
      "Ġplay": 848,
      "Ġabout": 849,
      "ĠØ§ÙĦØ¯": 850,
      "Ø¹Ø§": 851,
      "ak": 852,
      "ĠØ³Øª": 853,
      "ĠØ§ÙĦØ§": 854,
      "ĠN": 855,
      "ish": 856,
      "ber": 857,
      "ĠÙħØ¬": 858,
      "ÙĨØ¯": 859,
      "Ġwill": 860,
      "Ø¯Ø«": 861,
      "ĠØ´ÙĬ": 862,
      "Ø§ÙĨÙĬ": 863,
      "ĠØ§ÙĦØ°ÙĬ": 864,
      "pt": 865,
      "Ġwoman": 866,
      "ase": 867,
      "ople": 868,
      "ÙģÙĦ": 869,
      "Ġte": 870,
      "Ø«Ø±": 871,
      "Ġen": 872,
      "ime": 873,
      "ÙĤØ§": 874,
      "Ġbu": 875,
      "av": 876,
      "ĠØ§ÙĦÙĦ": 877,
      "nt": 878,
      "ĠØ£ÙĪ": 879,
      "ĠÙĬÙħÙĥÙĨ": 880,
      "ĠØ§ÙĦØ¢": 881,
      "Ø«ÙĦ": 882,
      "Ġbut": 883,
      "Ġgre": 884,
      "ick": 885,
      "Ġsit": 886,
      "Ø±Ø£Ø©": 887,
      "Ø¥ÙĨ": 888,
      "ĠØ§ÙĦØªÙĬ": 889,
      "Ø³ÙĨØ§": 890,
      "ÙģØ¶": 891,
      "ĠØ§ÙĦÙħÙĨ": 892,
      "ØŃÙĬ": 893,
      "Ġthey": 894,
      "ĠØ£ÙĨØª": 895,
      "Ø§Ø±ÙĬ": 896,
      "ÙĩØ°Ø§": 897,
      "ĠØ¨ÙĬÙĨ": 898,
      "ĠÙĦÙĥ": 899,
      "ĠØ§ÙĦØº": 900,
      "ÙĤÙĦ": 901,
      "ial": 902,
      "Ġthere": 903,
      "Ø¨Ø©": 904,
      "Ø±ÙĬØ¯": 905,
      "we": 906,
      "Ø³Ø±": 907,
      "ress": 908,
      "Ġsome": 909,
      "ep": 910,
      "ĠÙĪØ£": 911,
      "Ø±ØªØ¯ÙĬ": 912,
      "Ø§ÙĦÙĬ": 913,
      "ign": 914,
      "ub": 915,
      "Ġint": 916,
      "act": 917,
      "Ø¯ÙĪ": 918,
      "Ø²ÙĬ": 919,
      "ÙĩÙĪ": 920,
      "Ġcomp": 921,
      "ĠÙĥØ¨": 922,
      "Ġoff": 923,
      "ang": 924,
      "ĠØ¨Ø¹Ø¯": 925,
      "od": 926,
      "ank": 927,
      "ØªÙĩ": 928,
      "Ġwho": 929,
      "Ø¬Ø¨": 930,
      "au": 931,
      "Ġfe": 932,
      "ĠØ§ÙĦØ«": 933,
      "ĠØ£Ùĥ": 934,
      "Ġill": 935,
      "ans": 936,
      "ÙĦØ§ÙĦ": 937,
      "Ø§ÙħØ±Ø£Ø©": 938,
      "ĠØ£Ø¹": 939,
      "Ġho": 940,
      "ence": 941,
      "ĠØ£ÙĬØ¶Ø§": 942,
      "Ġsc": 943,
      "Ġph": 944,
      "Ø¯ÙĬÙĨØ©": 945,
      "Ġpeople": 946,
      "Ġpo": 947,
      "Ġwant": 948,
      "Ø°ÙĦÙĥ": 949,
      "Ġsm": 950,
      "Ġtheir": 951,
      "It": 952,
      "ĠÙĦÙĤØ¯": 953,
      "Ø¶Ø§Ø¡": 954,
      "Ġbeen": 955,
      "Ġother": 956,
      "ÙĩÙĬ": 957,
      "Ġblack": 958,
      "Ø±Ø§Ø¡": 959,
      "Ġ,": 960,
      "Ø±Ø¬": 961,
      "ĠÙĩÙĨØ§Ùĥ": 962,
      "ĠÙĬØ¹": 963,
      "pl": 964,
      "ĠØ´Ø®Øµ": 965,
      "He": 966,
      "ions": 967,
      "Ġover": 968,
      "ÙĪÙĦØ©": 969,
      "ire": 970,
      "og": 971,
      "Ø³ÙĦ": 972,
      "Ġad": 973,
      "Ġstand": 974,
      "ary": 975,
      "Ø¬ÙĦØ³": 976,
      "iz": 977,
      "ĠØ¶": 978,
      "Ġsa": 979,
      "Ø§Ø©": 980,
      "per": 981,
      "ØªØ¹": 982,
      "ĠJ": 983,
      "ool": 984,
      "Ġnow": 985,
      "way": 986,
      "Ø¨ØŃ": 987,
      "ĠÙĥØ§ÙĨØª": 988,
      "Ø·ÙĬ": 989,
      "Ø§Ùĩ": 990,
      "ÙģØ³": 991,
      "ile": 992,
      "ÙģØ¹ÙĦ": 993,
      "itt": 994,
      "Ġam": 995,
      "ĠØ¨Ø¹Ø¶": 996,
      "orm": 997,
      "Ġhad": 998,
      "cl": 999,
      "hing": 1000,
      "Ġcont": 1001,
      "ĠØ¨Ø´": 1002,
      "Ġgot": 1003,
      "Ø§ÙĤ": 1004,
      "ÙħØ³": 1005,
      "Ġhow": 1006,
      "ĠØ±Ø¬ÙĦ": 1007,
      "ĠØ§ÙĦØ²": 1008,
      "Ġwould": 1009,
      "ÙĬØ§Øª": 1010,
      "Ġwork": 1011,
      "other": 1012,
      "Ġmore": 1013,
      "ÙĨÙī": 1014,
      "Ġag": 1015,
      "ĠØ§ÙĦÙħØŃ": 1016,
      "ground": 1017,
      "ĠO": 1018,
      "Ġgl": 1019,
      "Ġres": 1020,
      "Ø²ÙĦ": 1021,
      "ail": 1022,
      "ĠØ£Ø³": 1023,
      "Ø±ÙģØ©": 1024,
      "ond": 1025,
      "ĠÙĦØ¯ÙĬ": 1026,
      "ÙĬÙĥ": 1027,
      "ĠÙħØ´": 1028,
      "Ġtime": 1029,
      "ĠÙĪÙħ": 1030,
      "Ġany": 1031,
      "Ø§Ø±Ø§Øª": 1032,
      "Ġthink": 1033,
      "ĠÙĬØª": 1034,
      "ance": 1035,
      "\".": 1036,
      "Ø®Øª": 1037,
      "ÙĪØ¹": 1038,
      "ĠØªØ´": 1039,
      "Ġpart": 1040,
      "here": 1041,
      "ÙĪØ§Øª": 1042,
      "ings": 1043,
      "ts": 1044,
      "eah": 1045,
      "Ġnew": 1046,
      "Ġfront": 1047,
      "ĠÂ": 1048,
      "iver": 1049,
      "ĠHe": 1050,
      "ÙģØ¶ÙĦ": 1051,
      "ØµÙģ": 1052,
      "Ġ-": 1053,
      "wn": 1054,
      "ÙĥÙħ": 1055,
      "Ġ2": 1056,
      "ord": 1057,
      "Ø§Ø¨Ø©": 1058,
      "ical": 1059,
      "ÙĨØ©": 1060,
      "Ġpre": 1061,
      "ble": 1062,
      "Ġgu": 1063,
      "its": 1064,
      "ĠØµØº": 1065,
      "ne": 1066,
      "na": 1067,
      "Ġdis": 1068,
      "ich": 1069,
      "ĠÙħØ§Ø°Ø§": 1070,
      "his": 1071,
      "ÙĦÙģÙĬØ©": 1072,
      "Ø´Ø±": 1073,
      "Ġthem": 1074,
      "hes": 1075,
      "Ø§ÙĨÙĬØ©": 1076,
      "ĠÙħÙĤ": 1077,
      "ÙĨÙĬØ©": 1078,
      "fter": 1079,
      "ĠÙĥÙĨØª": 1080,
      "ĠÙĪØ¬": 1081,
      "ÙĨØ§Ø¡": 1082,
      "ÙĦØª": 1083,
      "ĠØ£Ø®": 1084,
      "les": 1085,
      "fer": 1086,
      "Ġred": 1087,
      "Ġgood": 1088,
      "Ġqu": 1089,
      "Ġsee": 1090,
      "ors": 1091,
      "Ġwell": 1092,
      "ĠØªØª": 1093,
      "Ġbackground": 1094,
      "Ġdes": 1095,
      "Ġ1": 1096,
      "Ġev": 1097,
      "âĢ": 1098,
      "Ġhand": 1099,
      "ved": 1100,
      "ĠK": 1101,
      "Ø¨Øª": 1102,
      "ĠIt": 1103,
      "Ġser": 1104,
      "ict": 1105,
      "ade": 1106,
      "oup": 1107,
      "ĠØ¹ÙĨØ¯": 1108,
      "Ġper": 1109,
      "ens": 1110,
      "ng": 1111,
      "ob": 1112,
      "uck": 1113,
      "Ġdown": 1114,
      "Ġlar": 1115,
      "Ø£ÙĨØ§": 1116,
      "Ø§Ø³": 1117,
      "ations": 1118,
      "ec": 1119,
      "Ø§ÙĨØ¨": 1120,
      "orn": 1121,
      "Ø«ÙĬØ±": 1122,
      "ock": 1123,
      "Ø§Ùĥ": 1124,
      "ĠÙĤØ¨ÙĦ": 1125,
      "xt": 1126,
      "ÙĦÙĤØ¯": 1127,
      "irt": 1128,
      "Ø³ØªØ®": 1129,
      "Ø´ÙĬ": 1130,
      "Ø±Ø¯": 1131,
      "ĠÙĪØ§ØŃ": 1132,
      "ys": 1133,
      "ouse": 1134,
      "Ġfo": 1135,
      "ĠØ§ÙĦÙĬ": 1136,
      "Ġneed": 1137,
      "hed": 1138,
      "Ø¨ÙĬØ¶": 1139,
      "air": 1140,
      "irl": 1141,
      "Ġhold": 1142,
      "Ø¹Ø±": 1143,
      "Ø¹ØªÙĤØ¯": 1144,
      "Ø®Ø±Ùī": 1145,
      "ĠÙħÙĦ": 1146,
      "ĠØ®ÙĦØ§ÙĦ": 1147,
      "ÙħÙĪØ¹Ø©": 1148,
      "Ø±ÙĥØ©": 1149,
      "ĠÙĦÙĬØ³": 1150,
      "Ġyoure": 1151,
      "irst": 1152,
      "Ġlook": 1153,
      "ĠØ§ÙĦØ¢ÙĨ": 1154,
      "ult": 1155,
      "oh": 1156,
      "ĠØ¬ÙħÙĬ": 1157,
      "Ġsay": 1158,
      "ĠØ£ÙħØ§Ùħ": 1159,
      "what": 1160,
      "ÙĪØ¶": 1161,
      "Ġthr": 1162,
      "fe": 1163,
      "ĠÙĦÙĨ": 1164,
      "ĠØ´ÙĬØ¡": 1165,
      "ave": 1166,
      "ose": 1167,
      "Ġlet": 1168,
      "Ġcome": 1169,
      "ØŃØ©": 1170,
      "Ġwr": 1171,
      "Ġcr": 1172,
      "Ġsk": 1173,
      "Ġapp": 1174,
      "Ġbuild": 1175,
      "ath": 1176,
      "ĠØªÙĨ": 1177,
      "ÙĬÙħ": 1178,
      "ĠÙģÙĤØ·": 1179,
      "Ġact": 1180,
      "Ġwater": 1181,
      "Ø´Ø¨": 1182,
      "ustr": 1183,
      "ĠØ§ÙĦØ³ÙĬ": 1184,
      "ÙĪØ²": 1185,
      "ØªÙī": 1186,
      "ĠØ¨Ø¯": 1187,
      "int": 1188,
      "ĠÙĪØª": 1189,
      "ents": 1190,
      "ĠØ¨Ø§": 1191,
      "Ø¢": 1192,
      "Ġcomm": 1193,
      "Ġblue": 1194,
      "Ø£Ø³": 1195,
      "Ø§ÙĦÙĬØ©": 1196,
      "ÙĥØ©": 1197,
      "alk": 1198,
      "ving": 1199,
      "Ø±Ø¬ÙĦ": 1200,
      "ĠØ§ÙĦÙħØª": 1201,
      "uring": 1202,
      "ÙĪØ§ÙĨ": 1203,
      "ves": 1204,
      "omet": 1205,
      "ĠÙħØ¨": 1206,
      "Ġshow": 1207,
      "man": 1208,
      "ĠØ§ÙĦÙĨØ§": 1209,
      "ĠØ§ÙĨØª": 1210,
      "port": 1211,
      "ÙĪÙĬØ©": 1212,
      "iss": 1213,
      "Ġold": 1214,
      "Ġyear": 1215,
      "ĠØ£ÙĥØ«Ø±": 1216,
      "Ġgirl": 1217,
      "ĠØºÙĬØ±": 1218,
      "\"\".\"": 1219,
      "land": 1220,
      "Ġcall": 1221,
      "ĠÙħØ±": 1222,
      "kay": 1223,
      "tern": 1224,
      "uct": 1225,
      "Ġbec": 1226,
      "Ġfirst": 1227,
      "Ġbet": 1228,
      "ĠØ¨Ùĩ": 1229,
      "Ġsitting": 1230,
      "ÙĦÙĥÙĨ": 1231,
      "ĠÙħØ³Øª": 1232,
      "ĠØ¨ØŃ": 1233,
      "no": 1234,
      "ĠÂ«": 1235,
      "ÙĥÙĬ": 1236,
      "Ġinto": 1237,
      "Ġlarge": 1238,
      "ÙħØ¹": 1239,
      "ÙħØª": 1240,
      "Ġthats": 1241,
      "ĠÙħØ³": 1242,
      "Ġtoo": 1243,
      "ØŃÙĨ": 1244,
      "ĠØªØµ": 1245,
      "side": 1246,
      "urn": 1247,
      "ats": 1248,
      "ory": 1249,
      "ĠØ§ÙĦÙĩ": 1250,
      "form": 1251,
      "ĠØ£Øµ": 1252,
      "Ġgoing": 1253,
      "ĠÙĪÙĬ": 1254,
      "ĠÙħØµ": 1255,
      "ĠÙĬØ±ØªØ¯ÙĬ": 1256,
      "te": 1257,
      "Ø±ÙĬØ©": 1258,
      "Ø§ÙĦØ©": 1259,
      "are": 1260,
      "aring": 1261,
      "chool": 1262,
      "ĠØŃØ³ÙĨØ§": 1263,
      "ÙĪØ³ÙĬ": 1264,
      "ĠØ³Ø£": 1265,
      "ition": 1266,
      "Ġunder": 1267,
      "Ø·Ùģ": 1268,
      "Ø¬Ø§Ø±": 1269,
      "Ø§Ø¹": 1270,
      "Ġroom": 1271,
      "anc": 1272,
      "Ġday": 1273,
      "ty": 1274,
      "Ø§ÙĬ": 1275,
      "ĠÙĤØ¯": 1276,
      "ĠÙĬÙĤÙģ": 1277,
      "ons": 1278,
      "Ġstr": 1279,
      "Ġatt": 1280,
      "Ø·ÙĤØ©": 1281,
      "Ġthrough": 1282,
      "ĠØ§ÙĦØ¹Ø§ÙĦÙħ": 1283,
      "get": 1284,
      "Ġstanding": 1285,
      "ØªÙĥ": 1286,
      "ĠØµÙĪØ±Ø©": 1287,
      "Ø·Ø¨": 1288,
      "ather": 1289,
      "ious": 1290,
      "ĠØ§ÙĦØ´Ø®Øµ": 1291,
      "ĠØ¨Ø¬": 1292,
      "Ġshould": 1293,
      "sel": 1294,
      "ĠØ¬Ø¯Ø§": 1295,
      "ft": 1296,
      "ĠØ§ÙĦÙĪ": 1297,
      "Ġem": 1298,
      "ÙĤØ¯Ùħ": 1299,
      "Ġcould": 1300,
      "Ø´Ø®Øµ": 1301,
      "ily": 1302,
      "Ġtop": 1303,
      "amp": 1304,
      "ange": 1305,
      "ÙĦØ§Ø«": 1306,
      "Ġhel": 1307,
      "Ġphot": 1308,
      "ull": 1309,
      "Ø§Ø±Ø¬": 1310,
      "Ø§ÙħØ©": 1311,
      "ĠØªØŃØª": 1312,
      "Ġevery": 1313,
      "Ġillustr": 1314,
      "ĠIn": 1315,
      "Ø¯Ø§Ø±": 1316,
      "Ø¶Ø±": 1317,
      "Ġafter": 1318,
      "ied": 1319,
      "Ġrec": 1320,
      "Ø¨Ø§Ø±": 1321,
      "ÙħÙĬØµ": 1322,
      "Ø°ÙĩØ¨": 1323,
      "Ġsmall": 1324,
      "ĠØ¨ÙĬØ¶Ø§Ø¡": 1325,
      "ÙĪØ¬Ø¯": 1326,
      "ĠCh": 1327,
      "onna": 1328,
      "Ġagain": 1329,
      "Â»": 1330,
      "Ġsomet": 1331,
      "Ø¦Ø©": 1332,
      "ĠÙģØ±": 1333,
      "ĠÙĦÙĥÙĨ": 1334,
      "uc": 1335,
      "Ġsur": 1336,
      "Ġyeah": 1337,
      "vel": 1338,
      "ates": 1339,
      "ĠSt": 1340,
      "ĠØ§Ø®": 1341,
      "sh": 1342,
      "Ġoh": 1343,
      "ĠÙĦØª": 1344,
      "ÙĪØ±ÙĬ": 1345,
      "Ġhapp": 1346,
      "Ġshirt": 1347,
      "Ø§ÙĨØ§": 1348,
      "Ġchild": 1349,
      "Ġour": 1350,
      "ÙĬØ¨": 1351,
      "ÙģØ©": 1352,
      "Ġhouse": 1353,
      "Ġgonna": 1354,
      "ĠØ§ÙĦØ¹Ø¯ÙĬØ¯": 1355,
      "ÙģØ±": 1356,
      "Ġthen": 1357,
      "ÙĪÙĦØ§": 1358,
      "ĠØ£Ø´": 1359,
      "ĠØ§ÙĦØ£Ùħ": 1360,
      "ĠØ£ÙĨÙĩ": 1361,
      "Ġcity": 1362,
      "oy": 1363,
      "ĠÙĬÙĨ": 1364,
      "Ø±Ùī": 1365,
      "Ġlove": 1366,
      "Ø§Ø±Ø¹": 1367,
      "lease": 1368,
      "ĠØ®Ø·": 1369,
      "ÙĪÙĨØ©": 1370,
      "ph": 1371,
      "Ġlong": 1372,
      "ĠØ¨Ø£": 1373,
      "Ø¸ÙĩØ±": 1374,
      "ĠÙĬØªÙħ": 1375,
      "alking": 1376,
      "ĠÙĥØª": 1377,
      "ĠU": 1378,
      "ĠØ§Ø¨": 1379,
      "Ġtake": 1380,
      "Ġbel": 1381,
      "pen": 1382,
      "ÙĬÙĨÙĬ": 1383,
      "Ġwood": 1384,
      "Ġrem": 1385,
      "ĠØ°Ø§Øª": 1386,
      "ĠØ¨ÙĦ": 1387,
      "ĠØ§ÙĦÙħØ¹": 1388,
      "Ġart": 1389,
      "Ø¨Ø¯": 1390,
      "oth": 1391,
      "aw": 1392,
      "ield": 1393,
      "ĠÙĬØ¬Ø¨": 1394,
      "Ġmar": 1395,
      "ĠØ¨Ùħ": 1396,
      "ĠØ§ÙĦØ¨ÙĬ": 1397,
      "Ġvery": 1398,
      "Ø¨Ø§ÙĦ": 1399,
      "ÙĪÙĤØª": 1400,
      "ĠÙĥÙĬÙģ": 1401,
      "Ġmay": 1402,
      "mer": 1403,
      "Ġtell": 1404,
      "Ġyoung": 1405,
      "ÙĪÙĨÙĬ": 1406,
      "Ø®ØªÙĦÙģ": 1407,
      "iew": 1408,
      "ĠØ§ÙĦÙħØ´": 1409,
      "Ġthree": 1410,
      "Ġ!": 1411,
      "ittle": 1412,
      "Ġwhere": 1413,
      "ĠØ¨Ø´ÙĥÙĦ": 1414,
      "Ġif": 1415,
      "ĠÙĦØ£": 1416,
      "Ġillustration": 1417,
      "Ø¯Ùģ": 1418,
      "Ġdr": 1419,
      "clud": 1420,
      "Ġloc": 1421,
      "Ġbuilding": 1422,
      "ĠÙĨÙģØ³": 1423,
      "ĠÙĥØ¨ÙĬØ±": 1424,
      "Ġset": 1425,
      "ÙĩÙĪØ±": 1426,
      "Ġdif": 1427,
      "Ġflow": 1428,
      "Ġholding": 1429,
      "Ġgreen": 1430,
      "ĠÙģÙĪÙĤ": 1431,
      "ren": 1432,
      "ÙĨØ³": 1433,
      "Ġsy": 1434,
      "ĠØ§ÙħØ±Ø£Ø©": 1435,
      "ÙĦÙĬØ³": 1436,
      "Ġokay": 1437,
      "Ø¹Ø§Øª": 1438,
      "Ġlife": 1439,
      "ĠØªØ¬": 1440,
      "ices": 1441,
      "ĠÙĬØ¬ÙĦØ³": 1442,
      "Ġmu": 1443,
      "ÙĦØ¹Ø¨": 1444,
      "Ø§ÙģØ©": 1445,
      "Ġwearing": 1446,
      "ÙĬØ¬": 1447,
      "als": 1448,
      "ĠV": 1449,
      "Ġtable": 1450,
      "Ø¯Ø§Ùħ": 1451,
      "Ø¯ÙĬØ©": 1452,
      "Ø£ÙĨØª": 1453,
      "ØµØ©": 1454,
      "Ø§ØŃØ©": 1455,
      "Ġsec": 1456,
      "Ġway": 1457,
      "ever": 1458,
      "ÙĬÙĨØ§": 1459,
      "ĠØ¥ÙĨÙĩ": 1460,
      "Ġcol": 1461,
      "Ġhome": 1462,
      "ĠÙĦÙĦÙħ": 1463,
      "ĠÙĥÙħØ§": 1464,
      "wh": 1465,
      "ains": 1466,
      "oc": 1467,
      "ÙĪÙĩ": 1468,
      "ful": 1469,
      "be": 1470,
      "Ġstre": 1471,
      "ĠØ§ÙĦÙĨØ§Ø³": 1472,
      "up": 1473,
      "Ġinclud": 1474,
      "Ġwhy": 1475,
      "Ġacc": 1476,
      "Ġwall": 1477,
      "ĠÙĦÙĩ": 1478,
      "Ġhelp": 1479,
      "Ġ20": 1480,
      "Ġpain": 1481,
      "ĠÙħØ«ÙĦ": 1482,
      "ooking": 1483,
      "ĠØ§ÙĦØ¹ÙħÙĦ": 1484,
      "Ġind": 1485,
      "ĠØ¹ÙħÙĦ": 1486,
      "Ġused": 1487,
      "ĠØ³ÙĨ": 1488,
      "Ġsun": 1489,
      "Ġmany": 1490,
      "ĠØ§ÙĦÙħØ¯ÙĬÙĨØ©": 1491,
      "ib": 1492,
      "Ġdoes": 1493,
      "ĠØ§ÙĦÙħØ¬": 1494,
      "Ø¯Ùī": 1495,
      "pe": 1496,
      "ĠÙĪØ³": 1497,
      "ĠØ«ÙĦØ§Ø«": 1498,
      "Ġonly": 1499,
      "ĠY": 1500,
      "'t": 1501,
      "Ġmade": 1502,
      "Ġbook": 1503,
      "Ġduring": 1504,
      "ÙĩÙħØ§": 1505,
      "ĠÙĥØ¨ÙĬØ±Ø©": 1506,
      "ds": 1507,
      "Ø§ÙħÙĦ": 1508,
      "ward": 1509,
      "ning": 1510,
      "Ø³ØªØ®Ø¯Ùħ": 1511,
      "Ġsaid": 1512,
      "Ġke": 1513,
      "ÙĪØŃØ©": 1514,
      "Ġlittle": 1515,
      "Ġwhen": 1516,
      "atch": 1517,
      "Ġthan": 1518,
      "ĠÙĪØŃ": 1519,
      "ĠØ§ÙĦØ¨Ø±": 1520,
      "Ġhead": 1521,
      "Ġwhile": 1522,
      "Ġgroup": 1523,
      "ĠØ£ØŃØ¯": 1524,
      "ÙĤØ±": 1525,
      "ÙĥØ±Ø§": 1526,
      "ubl": 1527,
      "Ġpos": 1528,
      "ational": 1529,
      "Ġid": 1530,
      "Ø§Ø¦ÙĬØ©": 1531,
      "Ġpol": 1532,
      "Ø¨Ø§Øª": 1533,
      "ÙĦÙĬÙĦ": 1534,
      "ities": 1535,
      "Ø·ÙĬØ¹": 1536,
      "but": 1537,
      "Ø¦ÙĬØ³": 1538,
      "Ø¹ÙĬØ©": 1539,
      "thing": 1540,
      "ating": 1541,
      "Ġphoto": 1542,
      "Ġtre": 1543,
      "Ø§ÙĪÙĦØ©": 1544,
      "ØªÙģ": 1545,
      "Ġma": 1546,
      "Ġname": 1547,
      "ĠØ§ÙĦØ¨ØŃ": 1548,
      "ĠØ¥Ø°Ø§": 1549,
      "Ġsomething": 1550,
      "str": 1551,
      "Ġfam": 1552,
      "Ø²Ø©": 1553,
      "ise": 1554,
      "Ø§Ø·Ø¦": 1555,
      "ĠØªØ³": 1556,
      "Ġsign": 1557,
      "ĠØ§ÙĦÙĪÙĤØª": 1558,
      "ĠØ£Ø¨": 1559,
      "Ġrun": 1560,
      "ee": 1561,
      "lect": 1562,
      "ÙĦÙĪ": 1563,
      "Ġdog": 1564,
      "ĠØªÙĥÙĪÙĨ": 1565,
      "ÙĬÙĨØ©": 1566,
      "Ø§Ø®ÙĦ": 1567,
      "Ġopen": 1568,
      "Ġread": 1569,
      "az": 1570,
      "Ø¯ÙĬÙħ": 1571,
      "Ġimp": 1572,
      "ug": 1573,
      "ĠØ§ØŃ": 1574,
      "ĠØ§ÙĦÙħØ³": 1575,
      "ÙĤØ¹": 1576,
      "ĠØ£Ø¨ÙĬØ¶": 1577,
      "ĠÙĬÙĥÙĪÙĨ": 1578,
      "ÙĤÙī": 1579,
      "Ġnext": 1580,
      "ĠØ§ÙĦÙī": 1581,
      "enc": 1582,
      "Ø¬Ø±Ø©": 1583,
      "ÙĪÙĤØ¹": 1584,
      "Ġwhich": 1585,
      "Ġcre": 1586,
      "Ġmake": 1587,
      "ÙĪÙĬÙĦ": 1588,
      "Ø§Øº": 1589,
      "ĠØŃÙĪÙĦ": 1590,
      "self": 1591,
      "ĠØ¨Ø±": 1592,
      "ÙĬØ§Ø©": 1593,
      "ĠØŃÙĬ": 1594,
      "Ġdec": 1595,
      "ĠÙħØ¬ÙħÙĪØ¹Ø©": 1596,
      "ÙĪØ¯Ø§Ø¡": 1597,
      "Ġbus": 1598,
      "Ġ...": 1599,
      "ew": 1600,
      "Ġbed": 1601,
      "Ġnever": 1602,
      "ØªØ±": 1603,
      "any": 1604,
      "io": 1605,
      "day": 1606,
      "Ġdress": 1607,
      "ĠØºØ±ÙģØ©": 1608,
      "ĠØ¹ÙĦÙĬÙĩ": 1609,
      "ĠØ£Ø®Ø±Ùī": 1610,
      "ĠÙĥØ°ÙĦÙĥ": 1611,
      "This": 1612,
      "room": 1613,
      "Ġthese": 1614,
      "ĠÙĨØ¹Ùħ": 1615,
      "ÙĩØ©": 1616,
      "ĠÙģØ¹ÙĦ": 1617,
      "Ġnear": 1618,
      "ss": 1619,
      "ball": 1620,
      "ause": 1621,
      "ĠØ§ÙĦÙħØ³Øª": 1622,
      "ÙħØ§ÙĦ": 1623,
      "ĠØ¨ÙĬÙĨÙħØ§": 1624,
      "Ġcount": 1625,
      "ÙĥØ³": 1626,
      "ĠØ§Øª": 1627,
      "Ø¯Ø¹": 1628,
      "Ġsl": 1629,
      "ĠÙĦØŃ": 1630,
      "Ġmost": 1631,
      "ĠØ®ÙĦÙģÙĬØ©": 1632,
      "ØŃØ³ÙĨØ§": 1633,
      "ĠØ§ÙĦØ£Ø³": 1634,
      "Ġ..": 1635,
      "ĠÙĪÙĦ": 1636,
      "ÙĪØ©": 1637,
      "ĠØµØºÙĬØ±": 1638,
      "ĠØ¸": 1639,
      "ĠÙĪÙĦÙĥÙĨ": 1640,
      "ative": 1641,
      "ĠØ¨ÙĩØ§": 1642,
      "ĠÙĪÙĤØª": 1643,
      "ÙĥØ§": 1644,
      "ĠÙĥØ±Ø©": 1645,
      "ÙĬØ´": 1646,
      "ÙĨØ¬": 1647,
      "ÙĥØªØ¨": 1648,
      "Ġche": 1649,
      "ĠÙĪØ§ÙĦØ£": 1650,
      "Ġdiffer": 1651,
      "Ġchar": 1652,
      "Ø·ÙĦ": 1653,
      "ought": 1654,
      "ĠÙĦÙĪ": 1655,
      "Ġstreet": 1656,
      "ĠØŃØ§ÙĦ": 1657,
      "ĠØŃØªÙī": 1658,
      "ĠÙĤÙħÙĬØµ": 1659,
      "ĠØ§ÙĦØªØŃ": 1660,
      "Ø§ÙħØ§": 1661,
      "br": 1662,
      "ork": 1663,
      "ieve": 1664,
      "ĠØ§Ø³Ùħ": 1665,
      "ĠÙĪØ¹": 1666,
      "Ġpar": 1667,
      "ĠØ§ÙĦØ£ÙħØ±": 1668,
      "ah": 1669,
      "ĠØ§ÙĦØ¶": 1670,
      "ased": 1671,
      "ÙĪØ§Ø±": 1672,
      "ĠØ£Ø¬ÙĦ": 1673,
      "Ø¯ÙĪÙĨ": 1674,
      "Ø¯ÙĬØ¯Ø©": 1675,
      "ĠØ¨Ø£ÙĨ": 1676,
      "Ġlooking": 1677,
      "Ġmus": 1678,
      "ms": 1679,
      "ĠØ£ÙĤ": 1680,
      "ott": 1681,
      "Ø¬Ø±": 1682,
      "ject": 1683,
      "Ġrel": 1684,
      "ĠÙħØ¯ÙĬÙĨØ©": 1685,
      "Ġvo": 1686,
      "Ġreally": 1687,
      "ures": 1688,
      "ix": 1689,
      "ØªÙĩØ§": 1690,
      "ĠØªØ±ØªØ¯ÙĬ": 1691,
      "gan": 1692,
      "Ġstud": 1693,
      "ited": 1694,
      "Ġnight": 1695,
      "Ø®ÙĦ": 1696,
      "Ø¯Ø±Ø³Ø©": 1697,
      "Ø¬Ø§Ø¬": 1698,
      "ars": 1699,
      "Ġprod": 1700,
      "Ø¨Ø·": 1701,
      "ĠØ§ÙĦÙħØ§Ø¡": 1702,
      "ĠØ¬ÙĬØ¯": 1703,
      "ÙĨØ§ÙĨ": 1704,
      "Ġboy": 1705,
      "Ø¬Ø©": 1706,
      "ĠØ¨Øª": 1707,
      "Ø¯Ø¯": 1708,
      "ost": 1709,
      "Ġmin": 1710,
      "Ø¹Ø¨Ø©": 1711,
      "ert": 1712,
      "ĠÙģØª": 1713,
      "ĠØ¢Ø®Ø±": 1714,
      "Ġschool": 1715,
      "Ø§ÙĪÙĦ": 1716,
      "ĠØªØ£": 1717,
      "Ġmean": 1718,
      "Ġpark": 1719,
      "Ø·Ø§Ø±": 1720,
      "ÙĦÙĨ": 1721,
      "Ø³ØªØ·ÙĬØ¹": 1722,
      "ĠÙĪØ§ÙĦÙħ": 1723,
      "Ġnum": 1724,
      "Ġpost": 1725,
      "Ġdidnt": 1726,
      "Ġwind": 1727,
      "Ġmet": 1728,
      "ular": 1729,
      "Ø§Ø±Ùĥ": 1730,
      "ÙĪÙĤÙģ": 1731,
      "In": 1732,
      "ĠØ¬Ø²": 1733,
      "ĠØµØºÙĬØ±Ø©": 1734,
      "ait": 1735,
      "ric": 1736,
      "Ġside": 1737,
      "ØªØŃØ¯Ø«": 1738,
      "ale": 1739,
      "ÙĬØ±Ø§": 1740,
      "Ġreg": 1741,
      "Ø§Ø¦ÙĬ": 1742,
      "ÙħØ§Ø°Ø§": 1743,
      "ÙĤØ¨": 1744,
      "ĠØ¹Ø¨Ø±": 1745,
      "fore": 1746,
      "Ø¨Ø¯ÙĪ": 1747,
      "Ø¶Ø¹": 1748,
      "Ġteam": 1749,
      "Ġtree": 1750,
      "Ġsw": 1751,
      "ĠÙĨØ§": 1752,
      "Ġworld": 1753,
      "ĠØ£Øª": 1754,
      "Ġhes": 1755,
      "idd": 1756,
      "Ġmen": 1757,
      "ĠØªÙģ": 1758,
      "mb": 1759,
      "outh": 1760,
      "ÙĪÙĦÙĬ": 1761,
      "Ġstill": 1762,
      "ĠÙħØ®ØªÙĦÙģ": 1763,
      "Ġpres": 1764,
      "ĠUn": 1765,
      "Ġfield": 1766,
      "Ø±Ø§Øª": 1767,
      "ØºÙĬØ±": 1768,
      "Ġaround": 1769,
      "Ġair": 1770,
      "Ġsub": 1771,
      "Ġlight": 1772,
      "ÙĢÙĢ": 1773,
      "ines": 1774,
      "ĠØ¨ÙĨ": 1775,
      "ÙĪØ·": 1776,
      "Ø§Ø¯Ø©": 1777,
      "Ġac": 1778,
      "Ġyears": 1779,
      "ĠØ§ÙĦÙģØ±": 1780,
      "go": 1781,
      "Ġfound": 1782,
      "Ġcant": 1783,
      "well": 1784,
      "ows": 1785,
      "ØµÙĪÙĦ": 1786,
      "ÙĤÙĬØ©": 1787,
      "Ø³Ùĥ": 1788,
      "Ġmount": 1789,
      "Ø®Ø·": 1790,
      "Ġfind": 1791,
      "Ġcour": 1792,
      "Ø¹Ø§Ùħ": 1793,
      "Ġdoing": 1794,
      "ĠÙĨØ¸": 1795,
      "aph": 1796,
      "Ġfeel": 1797,
      "augh": 1798,
      "Ġarea": 1799,
      "Ø¥ÙĨÙĩ": 1800,
      "ĠÙĪØ§ØŃØ¯": 1801,
      "Ġkill": 1802,
      "Ġtown": 1803,
      "ĠÙĪØ¨": 1804,
      "Ġgame": 1805,
      "Ø¹ÙħÙĦ": 1806,
      "Ø¹ÙĬØ¯": 1807,
      "ÙħØ±Ø§Ø¡": 1808,
      "Ø·ÙģØ§ÙĦ": 1809,
      "Ġlater": 1810,
      "ently": 1811,
      "ĠÙĬÙĪÙħ": 1812,
      "Ġear": 1813,
      "akes": 1814,
      "ven": 1815,
      "ĠÙĪÙĥ": 1816,
      "ÙĪÙĬØ±": 1817,
      "ÙĦØ§Øª": 1818,
      "ÙĦØ§Ø¯": 1819,
      "ĠØ¨Ø·": 1820,
      "ĠØ¥ÙĦÙĬ": 1821,
      "ÙĩØ¨": 1822,
      "Ġdist": 1823,
      "Ġgreat": 1824,
      "ÙĩØ¯": 1825,
      "ĠØ§ÙĦØ£Ø±Ø¶": 1826,
      "ĠØ¬ÙħÙĬØ¹": 1827,
      "ĠÙĬØ´": 1828,
      "ĠØ§ÙĦØ£ÙĪÙĦ": 1829,
      "Ġsupp": 1830,
      "ĠØ·Ø±ÙĬÙĤ": 1831,
      "Ġbeach": 1832,
      "ØºØ©": 1833,
      "Ġcur": 1834,
      "ĠØ¨Ùĥ": 1835,
      "ctor": 1836,
      "Ø§ØµØ©": 1837,
      "ÙĦØ§ÙĤ": 1838,
      "ried": 1839,
      "Ø²ÙĪØ¬": 1840,
      "Ø¸Ùħ": 1841,
      "ellow": 1842,
      "dy": 1843,
      "ci": 1844,
      "Ø±ÙĤØ§Ø¡": 1845,
      "ually": 1846,
      "Ø¹ÙħØ§ÙĦ": 1847,
      "ccess": 1848,
      "Ġglass": 1849,
      "Ġeven": 1850,
      "Ġbetter": 1851,
      "Ø¯ÙĬÙĤØ©": 1852,
      "Ġpubl": 1853,
      "orry": 1854,
      "ĠØ¹ÙĨØ¯ÙħØ§": 1855,
      "ĠØ¨Ø¬Ø§ÙĨØ¨": 1856,
      "oon": 1857,
      "ĠØ§Ø±": 1858,
      "Ø³ÙĨ": 1859,
      "Ġfil": 1860,
      "ier": 1861,
      "ross": 1862,
      "Ø§Ø¹Ø©": 1863,
      "ÙĦÙĬÙħ": 1864,
      "att": 1865,
      "ants": 1866,
      "Ø±ÙĬØ±": 1867,
      "ĠØ¨Ø§ÙĦÙĤ": 1868,
      "ÙģØ°": 1869,
      "Ø¯ÙĤ": 1870,
      "ĠØ£Ø¬": 1871,
      "ĠØªØ±": 1872,
      "Ġbeing": 1873,
      "Ġcoll": 1874,
      "Ø±ÙĬØ¨": 1875,
      "Ġdifferent": 1876,
      "Ġmuch": 1877,
      "ĠØ£Ø«": 1878,
      "ĠØ§ÙĦÙĬÙĪÙħ": 1879,
      "ĠØ§ÙĦØ§Ø³Øª": 1880,
      "Ġed": 1881,
      "ÙĪÙī": 1882,
      "ĠØ§Ø³ØªØ®": 1883,
      "ĠØ±Ø§Ø¦": 1884,
      "Ġfin": 1885,
      "ĠØ§ÙĦØ®ÙĦÙģÙĬØ©": 1886,
      "Ø³ÙĪÙĨ": 1887,
      "ĠØ§Ùħ": 1888,
      "ĠÙĬØŃÙħÙĦ": 1889,
      "Ġhigh": 1890,
      "ash": 1891,
      "ĠØ§ÙĦØ±ÙĬ": 1892,
      "ØºØ·": 1893,
      "oor": 1894,
      "ĠØ§ÙĦØ¹Ø§ÙĦÙħÙĬØ©": 1895,
      "my": 1896,
      "Ġview": 1897,
      "ÙĪØ§Ø¬": 1898,
      "ĠØ§ÙĬ": 1899,
      "ĠØ§ÙĦØ·Ø±ÙĬÙĤ": 1900,
      "amed": 1901,
      "Ø¦Ø§": 1902,
      "ĠØ§ÙĦØ§Øµ": 1903,
      "Ġend": 1904,
      "Ø£Øª": 1905,
      "Ø³Ø§Ø¹Ø¯": 1906,
      "ĠÙħØ¯": 1907,
      "Ġfore": 1908,
      "Ø³ÙĬÙĨ": 1909,
      "ĠÙĥÙĦØ§": 1910,
      "ÙĪØ§ÙĦ": 1911,
      "Ġpat": 1912,
      "Ġthank": 1913,
      "Ġve": 1914,
      "Ø¯ÙĬÙħØ©": 1915,
      "ove": 1916,
      "ins": 1917,
      "by": 1918,
      "ÙħØ§Ø¡": 1919,
      "ener": 1920,
      "Ġown": 1921,
      "ĠThis": 1922,
      "ĠØ¹ÙĦ": 1923,
      "ĠÙħØ²": 1924,
      "Ġfamily": 1925,
      "Ġsky": 1926,
      "Ġret": 1927,
      "ĠØ³ÙĦ": 1928,
      "itch": 1929,
      "Ġinv": 1930,
      "rist": 1931,
      "olog": 1932,
      "ØºÙĬ": 1933,
      "ĠØ§ÙĦØ£Ø®": 1934,
      "ivers": 1935,
      "ĠÙħÙĥØ§ÙĨ": 1936,
      "ics": 1937,
      "ual": 1938,
      "Ġdesign": 1939,
      "Ġcent": 1940,
      "ÙĥÙħØ§": 1941,
      "ĠÙĪØ§ØŃØ¯Ø©": 1942,
      "ĠÙĦÙĦØª": 1943,
      "ĠØ§ÙĦÙħÙĤ": 1944,
      "Ġplan": 1945,
      "ages": 1946,
      "ĠØ§ÙĦØ§ÙĨ": 1947,
      "Ġfun": 1948,
      "ĠÙĦÙĩØ§": 1949,
      "ĠÙĤØ·": 1950,
      "ĠØ§ÙĦÙħØµ": 1951,
      "ÙĬØŃ": 1952,
      "ĠÙĪÙĤ": 1953,
      "Ġinter": 1954,
      "ĠØªØ¹Ø±Ùģ": 1955,
      "Ġface": 1956,
      "Ġglob": 1957,
      "Ġexp": 1958,
      "Ġent": 1959,
      "Ġroad": 1960,
      "veral": 1961,
      "imes": 1962,
      "Ġyes": 1963,
      "iend": 1964,
      "ĠØ³ÙĪØ¯Ø§Ø¡": 1965,
      "ying": 1966,
      "ger": 1967,
      "ØµØ±": 1968,
      "Ø§ÙĦØª": 1969,
      "Ġlist": 1970,
      "ĠØ£ÙĬÙĨ": 1971,
      "Ġcap": 1972,
      "Ġfriend": 1973,
      "ible": 1974,
      "Ġbir": 1975,
      "owing": 1976,
      "Ġter": 1977,
      "Ø¹Ø§Ø±": 1978,
      "Ġstock": 1979,
      "ĠØ£Ø³ÙĪØ¯": 1980,
      "Ġstart": 1981,
      "Ġcare": 1982,
      "Ø²Ø±ÙĤ": 1983,
      "Ø®Ø°": 1984,
      "Ø§Ø¬Ø©": 1985,
      "orth": 1986,
      "ÙģØ¹": 1987,
      "âĢĻ": 1988,
      "Ø²Ùĩ": 1989,
      "ĠÙĪØ±": 1990,
      "ĠØ¨Ø®": 1991,
      "Ø¨Ø¹": 1992,
      "ike": 1993,
      "ĠÙĬØ¯": 1994,
      "Ø§Ø·Ø¹Ø©": 1995,
      "ĠØ²ÙĪØ¬": 1996,
      "ner": 1997,
      "ute": 1998,
      "let": 1999,
      "ÙĬÙĤ": 2000,
      "ĠÙģØ¶": 2001,
      "Ġplaying": 2002,
      "Ġmed": 2003,
      "Ø®Ø±Ø¬": 2004,
      "Ø³Ø¨Ø¨": 2005,
      "ĠØªØ·": 2006,
      "ĠØ³ÙĪÙģ": 2007,
      "ÙģØ§": 2008,
      "ĠØ£ÙĪÙĦ": 2009,
      "ific": 2010,
      "Ġhey": 2011,
      "Ġmom": 2012,
      "ĠØ§ÙĦØ£ØŃ": 2013,
      "ĠÙĨØŃÙĨ": 2014,
      "Ø£Ùĥ": 2015,
      "ĠØªÙĦÙĥ": 2016,
      "ÙħØ§ÙĨ": 2017,
      "ØŃÙĬØŃ": 2018,
      "vers": 2019,
      "Ġsorry": 2020,
      "ĠÙħØ±Ø©": 2021,
      "ple": 2022,
      "Ġtrees": 2023,
      "Ġwalking": 2024,
      "Ġfour": 2025,
      "ĠØ¥ÙĨÙĩØ§": 2026,
      "ĠAn": 2027,
      "Ġcalled": 2028,
      "Ġchildren": 2029,
      "Ø·Ø±": 2030,
      "ÙĪÙħØ©": 2031,
      "Ġperform": 2032,
      "Ġbre": 2033,
      "iness": 2034,
      "ÙĥØ±Ø©": 2035,
      "ĠÙħØ¤": 2036,
      "ÙĬÙģØ©": 2037,
      "ĠØ¬ÙĬ": 2038,
      "ØŃØ¨": 2039,
      "ÙħØ¬": 2040,
      "Ġfoll": 2041,
      "Ġtrans": 2042,
      "ident": 2043,
      "Ø¹ÙĦÙī": 2044,
      "Ø§Ø¦ÙĦ": 2045,
      "Ġknown": 2046,
      "Ø±ÙĥØ²": 2047,
      "ĠÙħÙĨØª": 2048,
      "Ġball": 2049,
      "Ġwomen": 2050,
      "ĠØ¬ÙĨ": 2051,
      "ÙĬØ¹": 2052,
      "Ġmain": 2053,
      "ĠØ¹Ø§Ùħ": 2054,
      "Ġfuck": 2055,
      "bo": 2056,
      "Ġwooden": 2057,
      "aut": 2058,
      "Ġseveral": 2059,
      "Ġsuccess": 2060,
      "ĠØ§ÙĦÙħØ¨": 2061,
      "Ġcle": 2062,
      "Ø¹Ø§Ø¯Ø©": 2063,
      "ĠØ¹ÙĦÙĬÙĩØ§": 2064,
      "Ø§Ø¨ÙĤ": 2065,
      "ĠØ§ÙĦØ§ÙĨØª": 2066,
      "Ø¯Øª": 2067,
      "ÙĪØ¡": 2068,
      "Ø¸ÙĨ": 2069,
      "Ġstop": 2070,
      "oney": 2071,
      "ere": 2072,
      "Ġhappen": 2073,
      "ĠØ¯Ø§Ø¦": 2074,
      "ĠÙħÙĨØ·ÙĤØ©": 2075,
      "ĠBr": 2076,
      "Ø³ØªØ±": 2077,
      "Ø¸Ø©": 2078,
      "arm": 2079,
      "ĠØ§ÙĦØ´ÙħØ³": 2080,
      "Ġspec": 2081,
      "yes": 2082,
      "Ġglobal": 2083,
      "Ø±ÙĪØ³": 2084,
      "ĠÙĪØ´": 2085,
      "ĠÙĬØ¬": 2086,
      "Ø§Ø±Ø¨": 2087,
      "ÙĨØ¹": 2088,
      "ĠÙĥÙħ": 2089,
      "ote": 2090,
      "Ġplease": 2091,
      "Ġuse": 2092,
      "ĠØ«Ùħ": 2093,
      "Ġyellow": 2094,
      "Ġriver": 2095,
      "Ġ3": 2096,
      "ĠØŃÙĬØ§Øª": 2097,
      "ĠÙĬÙħ": 2098,
      "Ø¯ÙĬØ«": 2099,
      "Ø±ÙĬÙĥ": 2100,
      "ask": 2101,
      "ØºØ§": 2102,
      "Ġform": 2103,
      "ets": 2104,
      "ÙħØ§Ùħ": 2105,
      "ames": 2106,
      "Ø«Ø§ÙĦ": 2107,
      "ĠØ§ÙĦØ£ÙĨ": 2108,
      "ĠØªØŃÙħÙĦ": 2109,
      "yeah": 2110,
      "ĠØ¨Ø¥": 2111,
      "ished": 2112,
      "cept": 2113,
      "ower": 2114,
      "ÙĤÙĬÙĤ": 2115,
      "Ġdon": 2116,
      "ÙĥØ§ÙĨØª": 2117,
      "this": 2118,
      "Ġcons": 2119,
      "ÙģÙĤ": 2120,
      "ĠØ§ÙĦÙħÙĦ": 2121,
      "Ø§Ø¨Ø§Øª": 2122,
      "Ġrock": 2123,
      "Ġbelieve": 2124,
      "ists": 2125,
      "eng": 2126,
      "ĠØ§ÙĦÙģÙĬ": 2127,
      "ÙĬÙĪ": 2128,
      "Ġvoices": 2129,
      "ĠØ§ÙĦØ£Ø´": 2130,
      "ĠØ§ÙĦØ£Ø®Ø±Ùī": 2131,
      "Ġpop": 2132,
      "ÙĬÙħÙĥÙĨ": 2133,
      "ton": 2134,
      "Ø³Ùģ": 2135,
      "Ġboth": 2136,
      "ĠÙĪÙĦØ§": 2137,
      "Ġgive": 2138,
      "ĠØ£Øº": 2139,
      "ĠÙĦØ§ØŃ": 2140,
      "Ø§ÙĨØ¯": 2141,
      "velop": 2142,
      "Ġeach": 2143,
      "ĠTh": 2144,
      "Ġflowers": 2145,
      "Ø±Ø³": 2146,
      "Ø¹ÙĬØ´": 2147,
      "thats": 2148,
      "ĠØ£Ø¹Ø±Ùģ": 2149,
      "ments": 2150,
      "Ġtalk": 2151,
      "led": 2152,
      "Ġ)": 2153,
      "Ġbab": 2154,
      "ered": 2155,
      "ÙĨØ¹Ùħ": 2156,
      "Ø¶Ø©": 2157,
      "ĠØ§ÙĦØ³ÙĦ": 2158,
      "Ġplace": 2159,
      "oll": 2160,
      "ÙħÙĬÙħ": 2161,
      "Ø´Ùģ": 2162,
      "ĠØ§ÙĦØ´Ø§Ø·Ø¦": 2163,
      "ding": 2164,
      "Ø°ÙĬ": 2165,
      "She": 2166,
      "ÙĪÙĦÙī": 2167,
      "ØµÙĪØ±Ø©": 2168,
      "Ġinc": 2169,
      "ĠÙĨØŃ": 2170,
      "ots": 2171,
      "ØŃØ¨Ø§": 2172,
      "Ġwhats": 2173,
      "ĠØ±Ø³": 2174,
      "Ġsing": 2175,
      "Ġlast": 2176,
      "ĠØ§ÙĦÙĥØ«ÙĬØ±": 2177,
      "ĠØ§ÙĦØ§ØµÙĪØ§Øª": 2178,
      "ÙĦÙħØ©": 2179,
      "Ø¨Ùĩ": 2180,
      "ĠÙĦÙĦØ£": 2181,
      "ĠØªØ®": 2182,
      "raw": 2183,
      "ĠØ§ÙĦØªØ¹": 2184,
      "Ġmust": 2185,
      "ĠØ§ÙĦØ¬ÙĨ": 2186,
      "Ø¬ÙĨ": 2187,
      "Ġbefore": 2188,
      "Ġrest": 2189,
      "Ġwait": 2190,
      "Ġsame": 2191,
      "Ġel": 2192,
      "ley": 2193,
      "ĠØµÙģ": 2194,
      "ĠØ§ÙĦØŃÙĬØ§Ø©": 2195,
      "ince": 2196,
      "Ġsecond": 2197,
      "ny": 2198,
      "ĠØ¹Ùħ": 2199,
      "Ġanother": 2200,
      "Ġfeat": 2201,
      "Ø³Ø£": 2202,
      "ĠÙĪÙĨ": 2203,
      "ÙĩØ§ÙĬØ©": 2204,
      "ĠØ¨Ø§ÙĦÙĤØ±Ø¨": 2205,
      "ĠØ£Ùģ": 2206,
      "ĠØªÙģØ¹ÙĦ": 2207,
      "Ø¬Ø§ÙĦ": 2208,
      "ĠØŃÙĬØ«": 2209,
      "Ø§Ø±ÙĬØ®": 2210,
      "ican": 2211,
      "Ġimage": 2212,
      "Ġagainst": 2213,
      "Ġob": 2214,
      "fl": 2215,
      "yal": 2216,
      "ĠØ§ÙĦÙħØ¯": 2217,
      "Ġson": 2218,
      "Ġgod": 2219,
      "ways": 2220,
      "Ġlead": 2221,
      "vent": 2222,
      "ĠØ§ÙĦÙħØªØŃ": 2223,
      "Ġchair": 2224,
      "ife": 2225,
      "ĠØ£ÙĨÙĩØ§": 2226,
      "Ø®Ø§Øµ": 2227,
      "Ġpainting": 2228,
      "Ġmusic": 2229,
      "Ġsnow": 2230,
      "Ġbig": 2231,
      "ĠØ£Ø±ÙĬØ¯": 2232,
      "ØªÙĦ": 2233,
      "ÙĤÙĬÙĤØ©": 2234,
      "Ø±ÙĪØ¨": 2235,
      "Ġthose": 2236,
      "ĠÙĦÙħØ§Ø°Ø§": 2237,
      "ĠÙĬÙĪØ¬Ø¯": 2238,
      "Ø³Ø±ØŃ": 2239,
      "ĠØ³Ø¨": 2240,
      "Ġpur": 2241,
      "Ġprov": 2242,
      "ĠÙĤØµ": 2243,
      "ling": 2244,
      "ady": 2245,
      "Ø³Ø¨Ø©": 2246,
      "Ø¦ÙĬ": 2247,
      "ĠØ£ÙģØ¶ÙĦ": 2248,
      "ĠØ¨Ø§Ø³Ùħ": 2249,
      "ØªØ§Ø¬": 2250,
      "Ø±ÙĪØ¹": 2251,
      "ĠØ§ÙĨØ§": 2252,
      "Ġfull": 2253,
      "Ġdri": 2254,
      "ĠÙĤØ§Ùħ": 2255,
      "youre": 2256,
      "ĠÙĬØ³": 2257,
      "Ġhands": 2258,
      "Ø±ÙĪÙģ": 2259,
      "vern": 2260,
      "ĠØªÙĪ": 2261,
      "ĠÙħÙĦÙĬ": 2262,
      "ision": 2263,
      "how": 2264,
      "ÙĦÙĬØ©": 2265,
      "Ġwon": 2266,
      "ĠØ¹Ø±Ø¶": 2267,
      "Ġvar": 2268,
      "ØµÙĤ": 2269,
      "ody": 2270,
      "ÙĪÙħØ§Øª": 2271,
      "Ġass": 2272,
      "ÙĨÙĬÙĨ": 2273,
      "Ġfather": 2274,
      "two": 2275,
      "ĠØ§Ø³ØªØ®Ø¯Ø§Ùħ": 2276,
      "Ġmother": 2277,
      "Ġnumber": 2278,
      "Ġcontin": 2279,
      "Ġseen": 2280,
      "arn": 2281,
      "Ø±ØŃ": 2282,
      "ĠÙĪÙĩÙĪ": 2283,
      "ĠØ¹ÙĦÙĬÙĥ": 2284,
      ")ØĮ": 2285,
      "ĠØ§ÙĦÙĥØª": 2286,
      "Ø§Ø¶ÙĬ": 2287,
      "Ø°ÙĥØ±": 2288,
      "Ġpink": 2289,
      "ĠÙħÙĩ": 2290,
      "aper": 2291,
      "Ø³ØªØ§ÙĨ": 2292,
      "iddle": 2293,
      "ĠØ§ÙĦÙĨØ¬": 2294,
      "ĠØ£ÙĦ": 2295,
      "Ø¯ÙĬÙĪ": 2296,
      "ĠÙħØ®ØªÙĦÙģØ©": 2297,
      "ĠÙĪÙģ": 2298,
      "ĠÙĩÙĬØ§": 2299,
      "igin": 2300,
      "Ø²Ø§ÙĦ": 2301,
      "Ġgrass": 2302,
      "ÙħØ§Ø±": 2303,
      "Ġhell": 2304,
      "ĠÙħØ¨ÙĨÙī": 2305,
      "Ġcam": 2306,
      "Ø§Ø³Øª": 2307,
      "ina": 2308,
      "Ø´Ø¨ÙĬØ©": 2309,
      "ĠØ±Ø£": 2310,
      "Ø§ÙħÙĬ": 2311,
      "ax": 2312,
      "ØºÙħ": 2313,
      "ik": 2314,
      "Ġline": 2315,
      "eter": 2316,
      "ĠØ§ÙĨÙĩ": 2317,
      "Ø§ÙħØ¹Ø©": 2318,
      "ĠØ¨Ø§ÙĦØª": 2319,
      "Ġclass": 2320,
      "inc": 2321,
      "Ø§ØªÙģ": 2322,
      "ĠØ¯Ø¹": 2323,
      "ism": 2324,
      "ĠAr": 2325,
      "ital": 2326,
      "Ġroyal": 2327,
      "Ø§Ø¦ÙĦØ©": 2328,
      "idge": 2329,
      "ĠØ£ÙĨÙĥ": 2330,
      "ÙĬØ²": 2331,
      "ĠÙħÙģØª": 2332,
      "Ø§ÙĨØ©": 2333,
      "ĠØ·Ø§ÙĪÙĦØ©": 2334,
      "Ġcommun": 2335,
      "cle": 2336,
      "Ø¹Ø¯Ø©": 2337,
      "ump": 2338,
      "Ġput": 2339,
      "ained": 2340,
      "ĠØ¹ÙĬØ¯": 2341,
      "ĠØ§ÙĦØ¨ÙĦ": 2342,
      "come": 2343,
      "ene": 2344,
      "ÙģØ§Ùģ": 2345,
      "ĠØ«ÙĦØ§Ø«Ø©": 2346,
      "osed": 2347,
      "ĠØ¨ÙĬØª": 2348,
      "Ġrep": 2349,
      "Ġhot": 2350,
      "stem": 2351,
      "ĠØ§ÙĦÙħÙĪØ³ÙĬ": 2352,
      "Ø§ÙħØ¬": 2353,
      "ĠØ£ØµØ¨ØŃ": 2354,
      "ĠØªØ¯": 2355,
      "ĠÙĤØ¨": 2356,
      "ÙħÙĬØ¹": 2357,
      "ĠÙĬÙĦØ¹Ø¨": 2358,
      "ĠÙĨØ¬": 2359,
      "ØªÙĬÙĨ": 2360,
      "hip": 2361,
      "Ġelect": 2362,
      "ĠShe": 2363,
      "Ġgold": 2364,
      "Ġleft": 2365,
      "ĠØŃÙĤØ§": 2366,
      "Ø§ÙĦØ¨": 2367,
      "ired": 2368,
      "ĠØ£Ø¹ØªÙĤØ¯": 2369,
      "ĠØ£ØŃØ¨": 2370,
      "ĠÙĦØ¯ÙĬÙĥ": 2371,
      "ĠØ¨Ø§Ø±": 2372,
      "Ġwalk": 2373,
      ")ØŁ": 2374,
      "They": 2375,
      "ĠØ£Ø«ÙĨØ§Ø¡": 2376,
      "ÙĪØ¯Ø©": 2377,
      "ÙĥÙĬÙģ": 2378,
      "Ġborn": 2379,
      "Ġdevelop": 2380,
      "Ġsim": 2381,
      "do": 2382,
      "Ġaway": 2383,
      "Ġpict": 2384,
      "ane": 2385,
      "Ġ'": 2386,
      "Ġbecame": 2387,
      "ÙĦØ§Ùģ": 2388,
      "ĠØ§ÙĦÙħÙĨØ²ÙĦ": 2389,
      "Ġmark": 2390,
      "ĠØ®Ø§Ø±Ø¬": 2391,
      "ĠÙħÙĪ": 2392,
      "ural": 2393,
      "ĠØµØŃÙĬØŃ": 2394,
      "ĠØ³Ùħ": 2395,
      "Ġfilm": 2396,
      "ĠØŃØ¯Ø«": 2397,
      "ĠØ´ÙĬØ¦Ø§": 2398,
      "Ø¶Ø±Ø§Ø¡": 2399,
      "ween": 2400,
      "ÙĤÙĤ": 2401,
      "Ø±ÙĬÙĤØ©": 2402,
      "ĠØ¨Ø§ÙĦØ£": 2403,
      "ony": 2404,
      "Ġbeh": 2405,
      "ok": 2406,
      "Ġdep": 2407,
      "ten": 2408,
      "Ġeng": 2409,
      "Ġcat": 2410,
      "Ġprot": 2411,
      "Ø¯Ùĩ": 2412,
      "If": 2413,
      "Ġwed": 2414,
      "Ġbeaut": 2415,
      "Ø§Ø¦Ø±": 2416,
      "Ġkeep": 2417,
      "Ġthing": 2418,
      "Ġbaby": 2419,
      "ek": 2420,
      "Ġaut": 2421,
      "ĠØ¯Ø§Ø®ÙĦ": 2422,
      "pr": 2423,
      "sc": 2424,
      "ĠAl": 2425,
      "ĠNew": 2426,
      "Ġanything": 2427,
      "Ġadd": 2428,
      "Ø§ÙĦØ£": 2429,
      "ÙĩØ°Ùĩ": 2430,
      "ted": 2431,
      "Ġmeet": 2432,
      "Ġmod": 2433,
      "Ø¯Ø§Ø¡": 2434,
      "ĠØ§ÙĦØ´Ø±": 2435,
      ").": 2436,
      "Ġsil": 2437,
      "Ġ201": 2438,
      "ĠØ´ÙĥØ±Ø§": 2439,
      "ĠØªØ±ÙĬØ¯": 2440,
      "Ġhum": 2441,
      "Ġnamed": 2442,
      "ĠØ¨Ø§ÙĦÙĦ": 2443,
      "Ø¥Ø°Ø§": 2444,
      "ĠØ´Ø¬Ø±Ø©": 2445,
      "rop": 2446,
      "Ø¨Ø§ØŃ": 2447,
      "ÙĪÙĨÙĬØ©": 2448,
      "ĠÙħÙĨØ°": 2449,
      "Ġsuch": 2450,
      "ÙĩÙĨØ§": 2451,
      "Ġlocated": 2452,
      "ility": 2453,
      "ues": 2454,
      "Ġlets": 2455,
      "ape": 2456,
      "Ġfoot": 2457,
      "ĠØ±Ø¨": 2458,
      "Ġmiss": 2459,
      "Ġlive": 2460,
      "ĠÙĨÙĤ": 2461,
      "Ġbetween": 2462,
      "ĠØ§ÙĦØ¹Ø§Ùħ": 2463,
      "ized": 2464,
      "iet": 2465,
      "ØªÙħØ§": 2466,
      "aking": 2467,
      "ĠØ§ÙĦÙĩÙĪ": 2468,
      "ØµØ¨ØŃ": 2469,
      "Ø§ÙĦÙĥ": 2470,
      "Ġcart": 2471,
      "Ġask": 2472,
      "Ġbusiness": 2473,
      "Ġfire": 2474,
      "Ø§ÙĨÙĬØ§": 2475,
      "ĠÙĬØ³Øª": 2476,
      "not": 2477,
      "son": 2478,
      "ÙĦØ¬": 2479,
      "Ġplayer": 2480,
      "uction": 2481,
      "ĠØ³ÙĬØ§Ø±Ø©": 2482,
      "Ġsent": 2483,
      "ĠÙĦÙĦØŃ": 2484,
      "Ġsure": 2485,
      "iam": 2486,
      "ution": 2487,
      "owever": 2488,
      "ĠØ§Ø¬": 2489,
      "sp": 2490,
      "Ø¨ÙĤ": 2491,
      "Ġdisc": 2492,
      "Ġstay": 2493,
      "ÙĬÙĦØ§Ø¯": 2494,
      "ØªØ´": 2495,
      "Ø§Ø¦ÙĤ": 2496,
      "ĠØ¨Ø®ÙĬØ±": 2497,
      "ĠÙĬÙĥÙĨ": 2498,
      "ĠÙĦØ³Øª": 2499,
      "Ġreal": 2500,
      "era": 2501,
      "ĠØ¥ÙĦ": 2502,
      "Ġorigin": 2503,
      "Ġpass": 2504,
      "ĠØ§ÙĦØ±Ø¦ÙĬØ³": 2505,
      "line": 2506,
      "ØªØ§ÙĨ": 2507,
      "Ġcoup": 2508,
      "ium": 2509,
      "ĠØªØ¸ÙĩØ±": 2510,
      "Ø¬Ø²": 2511,
      "Ġoutside": 2512,
      "ĠÙĬØ¨Ø¯ÙĪ": 2513,
      "Ġthought": 2514,
      "eak": 2515,
      "Ġgener": 2516,
      "ĠØ§ÙĦÙħØ²": 2517,
      "ĠØ§ÙĦØ±Ø¬ÙĦ": 2518,
      "ides": 2519,
      "ĠIf": 2520,
      "Ġbar": 2521,
      "iversity": 2522,
      "There": 2523,
      "Ø¥ÙĨÙĩØ§": 2524,
      "Ġmiddle": 2525,
      "app": 2526,
      "uss": 2527,
      "Ġbecause": 2528,
      "Ø§Ø¦Ø±Ø©": 2529,
      "Ġland": 2530,
      "ĠÙħÙĨØ²ÙĦ": 2531,
      "Ġimpro": 2532,
      "Ġsystem": 2533,
      "Ø§Ø±ÙĬØ©": 2534,
      "Ø±Ø¨Ø©": 2535,
      "Ø³Ø§Øª": 2536,
      "Ø·ØŃ": 2537,
      "Ġwin": 2538,
      "ĠØªØ¨": 2539,
      "Ø§Ø¨ÙĦ": 2540,
      "Ġhair": 2541,
      "ÙĪØ±Ùĥ": 2542,
      "stand": 2543,
      "ĠØ¨Ø§ÙĦÙħ": 2544,
      "Ø±Ø§Ùģ": 2545,
      "Ġbest": 2546,
      "Ø³ÙĬØ©": 2547,
      "Ø·ÙĦÙĤ": 2548,
      "Ġeff": 2549,
      "gether": 2550,
      "Ġtogether": 2551,
      "ĠØ£Ø±": 2552,
      "row": 2553,
      "ĠÙĦØ£ÙĨ": 2554,
      "ĠØŃÙħØ±Ø§Ø¡": 2555,
      "gy": 2556,
      "ĠÙĬÙħÙĥÙĨÙĥ": 2557,
      "Ġalways": 2558,
      "Ġheart": 2559,
      "ĠÙħØ§Ø±": 2560,
      "ĠâĢ": 2561,
      "ĠÙħØ®": 2562,
      "graph": 2563,
      "Ø§ÙĨØ§Øª": 2564,
      "ĠØ²Ø±ÙĤØ§Ø¡": 2565,
      "Ġserv": 2566,
      "ĠØ§ÙĦÙĤØ¯Ùħ": 2567,
      "Ġtri": 2568,
      "ason": 2569,
      "Ġuh": 2570,
      "Ġprom": 2571,
      "ÙĬÙĩ": 2572,
      "Ġturn": 2573,
      "Ø¹ØªØ¨Ø±": 2574,
      "Ġfood": 2575,
      "uh": 2576,
      "ĠØ£Ø±Ø¨": 2577,
      "Ġty": 2578,
      "Ġworking": 2579,
      "ised": 2580,
      "ÙĪØ±Ø§": 2581,
      "ĠØ³ÙĬØ¯": 2582,
      "person": 2583,
      "ÙĪÙĦØ¯": 2584,
      "ĠÙĬØ¹ÙħÙĦ": 2585,
      "Ġpublic": 2586,
      "Ġroyalty": 2587,
      "Ġcouple": 2588,
      "ĠØ§ÙĦÙħÙĨØª": 2589,
      "ÙĥØ«Ø±": 2590,
      "Ġav": 2591,
      "ÙĤÙħ": 2592,
      "Ø³ÙĦØ©": 2593,
      "Ġenj": 2594,
      "Ġdoor": 2595,
      "ĠSchool": 2596,
      "less": 2597,
      "ĠØ§ÙĦØ°ÙĬÙĨ": 2598,
      "Ġtalking": 2599,
      "Ø¯ÙĬÙĨØ§": 2600,
      "ional": 2601,
      "Ø§Ø±Ø¯": 2602,
      "ÙĥÙĪ": 2603,
      "iful": 2604,
      "Ġz": 2605,
      "Ġdark": 2606,
      "ØºØ§ÙĬØ©": 2607,
      "ĠÙĪØ§ÙĦØª": 2608,
      "Ġmove": 2609,
      "Ġliving": 2610,
      "ĠÙĦÙĬØ³Øª": 2611,
      "ĠØ§ÙĦØ¬Ø²": 2612,
      "Ġproble": 2613,
      "ĠÙģØªØ§Ø©": 2614,
      "Ġeas": 2615,
      "Ġoper": 2616,
      "ĠØ§ÙĦÙħÙĨØ·ÙĤØ©": 2617,
      "ope": 2618,
      "Ø±ÙĬØ³": 2619,
      "ĠØ§ÙĦØªÙĤ": 2620,
      "ohn": 2621,
      "Ġvill": 2622,
      "ĠØ¬Ø²Ø¡": 2623,
      "ined": 2624,
      "Ø±ÙĬØ·": 2625,
      "ÙĤÙģ": 2626,
      "play": 2627,
      "ĠØ£ØŃÙħØ±": 2628,
      "ĠØ§ÙĦØ³ÙħØ§Ø¡": 2629,
      "ĠØªØ³Øª": 2630,
      "ĠØ±Ø³Ùħ": 2631,
      "Ġref": 2632,
      "Ø§ÙĦØŃ": 2633,
      "Ġhard": 2634,
      "ØµØ¯": 2635,
      "Ø±ÙĬÙĨ": 2636,
      "ÙĪØ¹Ø©": 2637,
      "aur": 2638,
      "body": 2639,
      "ided": 2640,
      "Ġtrain": 2641,
      "ured": 2642,
      "Ġcolor": 2643,
      "Ġappear": 2644,
      "Ø§ÙĦØ§Øª": 2645,
      "me": 2646,
      "Ġleg": 2647,
      "Ġsong": 2648,
      "mas": 2649,
      "ĠÙĦÙĦØºØ§ÙĬØ©": 2650,
      "Ġwedding": 2651,
      "Ġwhe": 2652,
      "Ø³Ø§Ø¡": 2653,
      "Ġdire": 2654,
      "Ġmon": 2655,
      "Ġwatch": 2656,
      "Ġevent": 2657,
      "Ġfloor": 2658,
      "Ġconc": 2659,
      "Ø¨Ø§Ø¨": 2660,
      "Ġshort": 2661,
      "Th": 2662,
      "Ġach": 2663,
      "ĠÙĤÙħ": 2664,
      "Ġext": 2665,
      "Ġlot": 2666,
      "ÙĬØªÙħ": 2667,
      "Ġwar": 2668,
      "aves": 2669,
      "Ġintern": 2670,
      "Ġorgan": 2671,
      "Ġsol": 2672,
      "ÙĬØ±Ø§ÙĨ": 2673,
      "Ø¨Ø¯Ø£": 2674,
      "ior": 2675,
      "Ġnothing": 2676,
      "ØµØ§ÙĨ": 2677,
      "Ø§Ø¦ÙħØ©": 2678,
      "ĠÙĬØ±": 2679,
      "ĠØ·ÙģÙĦ": 2680,
      "ones": 2681,
      "oss": 2682,
      "Ġresp": 2683,
      "Ġband": 2684,
      "ĠÙĪÙĩÙĬ": 2685,
      "Ġsho": 2686,
      "ĠAs": 2687,
      "ĠØŃØµÙĦ": 2688,
      "Ġcountry": 2689,
      "Ġsle": 2690,
      "ĠØ¯Ø±": 2691,
      "Ġtext": 2692,
      "ĠØ§ÙĦÙħØ¤": 2693,
      "ĠÙħØ¶": 2694,
      "Ġshes": 2695,
      "Ġwindow": 2696,
      "Ġtw": 2697,
      "ĠØ§ÙĦØ´Ø§Ø±Ø¹": 2698,
      "ÙħØ«ÙĦ": 2699,
      "Ø¬Ùħ": 2700,
      "ĠØ®Ø´Ø¨ÙĬØ©": 2701,
      "Ø±Ø§Ùĥ": 2702,
      "Ġgovern": 2703,
      "Ġdone": 2704,
      "cess": 2705,
      "Ġmov": 2706,
      "ret": 2707,
      "ĠÙĦØ·": 2708,
      "ĠÙģÙī": 2709,
      "Ø¹Ø§Ø¨": 2710,
      "ĠØ§ÙĦØ§Ùħ": 2711,
      "yle": 2712,
      "ĠThey": 2713,
      "ĠØ§ÙĦÙħÙĪ": 2714,
      "hey": 2715,
      "ids": 2716,
      "Ġdef": 2717,
      "Ġclose": 2718,
      "ĠÙĥØªØ§Ø¨": 2719,
      "What": 2720,
      "ĠØ§ÙĦØ®Ø·": 2721,
      "Ġbrother": 2722,
      "Ø§Ø¸": 2723,
      "ĠØ§ÙĦØ¢Ø®Ø±": 2724,
      "Ġbad": 2725,
      "ĠØªÙĤÙģ": 2726,
      "ĠØªØ±Ùĥ": 2727,
      "ĠØŃÙĤ": 2728,
      "ĠÙĤØ±": 2729,
      "Ġreport": 2730,
      "of": 2731,
      "ĠØ®ÙĦÙģ": 2732,
      "ries": 2733,
      "Ġbeautiful": 2734,
      "Ġcurr": 2735,
      "work": 2736,
      "ĠØ§ÙĦÙĤØ±": 2737,
      "Ġjo": 2738,
      "ÙĪØ±Ø¯": 2739,
      "ÙĦØ§Ø¹Ø¨": 2740,
      "enn": 2741,
      "ĠÙĬÙĨØ¸Ø±": 2742,
      "ĠØ§ÙĦØ·Ø¨ÙĬ": 2743,
      "Ø¯ÙħØ©": 2744,
      "ĠØ§ÙĦØ®Ø§ØµØ©": 2745,
      "where": 2746,
      "Ġmoney": 2747,
      "Ġwrit": 2748,
      "Ø¶Ùħ": 2749,
      "they": 2750,
      "Ġbow": 2751,
      "ĠØªØ³Ùħ": 2752,
      "ĠØ§ÙĦÙħØ±": 2753,
      "illed": 2754,
      "Ġjack": 2755,
      "Ø±ÙĨØª": 2756,
      "ĠØ´Ø±ÙĥØ©": 2757,
      "Ġbrown": 2758,
      "ĠÙĦÙĪØŃØ©": 2759,
      "ex": 2760,
      "ĠÙĨÙĬ": 2761,
      "ĠÙĦÙĢ": 2762,
      "ÙħÙĬÙĦ": 2763,
      "Ġalong": 2764,
      "ĠØªØ¹ÙĦÙħ": 2765,
      "Ø§Ø¦Ø·": 2766,
      "Ġbehind": 2767,
      "ĠÙħÙĪÙĤØ¹": 2768,
      "Ġopp": 2769,
      "ĠØ®Ø´": 2770,
      "ĠØªØ¬ÙĦØ³": 2771,
      "Ġbro": 2772,
      "ĠØ´ÙĥÙĦ": 2773,
      "els": 2774,
      "ÙĪØ¨Ø©": 2775,
      "ived": 2776,
      "ÙģØ°Ø©": 2777,
      "ĠØ¨ÙħØ§": 2778,
      "ÙĩØ§Ø¨": 2779,
      "Ø¸ÙħØ©": 2780,
      "ister": 2781,
      "ĠØ¨Ø³Ø¨Ø¨": 2782,
      "Ġce": 2783,
      "Ġmem": 2784,
      "ÙĪØµ": 2785,
      "ØºØ±": 2786,
      "Ġhist": 2787,
      "chn": 2788,
      "ĠØ¨ÙĤ": 2789,
      "Ġpri": 2790,
      "ĠØ£Ø®Ø¨Ø±": 2791,
      "par": 2792,
      "Ø°ÙĨ": 2793,
      "Ġcoming": 2794,
      "Ġtold": 2795,
      "gg": 2796,
      "ĠØ°ÙĪ": 2797,
      "ĠØ§ÙĦØµØŃ": 2798,
      "Ġblog": 2799,
      "Ø³ØªØ®Ø¯Ø§Ùħ": 2800,
      "ĠÙĥØ«ÙĬØ±": 2801,
      "Ġrecord": 2802,
      "ÙĦØ§Ø¨": 2803,
      "Ġattend": 2804,
      "ĠÙħÙĥ": 2805,
      "Ġstation": 2806,
      "Ø§Ø¨Ø³": 2807,
      "ĠØ§ÙĦØ£ÙĪÙĦÙī": 2808,
      "ĠØ´Ø±": 2809,
      "ĠØµÙĪØ±": 2810,
      "ives": 2811,
      "ÙĦÙĤØ©": 2812,
      "ĠØ§ÙĦÙĪØŃ": 2813,
      "Ø¦ÙĬØ³ÙĬ": 2814,
      "Ġscre": 2815,
      "ÙĪØ³Ø·": 2816,
      "ÙĬØ§Ø¯Ø©": 2817,
      "ĠÙĦØ¹Ø¨Ø©": 2818,
      "Ġkind": 2819,
      "ĠÙģØ±ÙĬÙĤ": 2820,
      "Ġtook": 2821,
      "ÙĩÙĨØ§Ùĥ": 2822,
      "ĠØ¹Ø¯Ø¯": 2823,
      "Ø§ØªÙĩ": 2824,
      "ster": 2825,
      "ov": 2826,
      "Ġmat": 2827,
      "Ġhor": 2828,
      "aces": 2829,
      "wer": 2830,
      "Ġoffic": 2831,
      "Ø±ÙĬØ¨Ø§": 2832,
      "ĠÂ»": 2833,
      "Ø£Ø©": 2834,
      "ember": 2835,
      "ĠÙĪÙħÙĨ": 2836,
      "Ġinst": 2837,
      "00": 2838,
      "ically": 2839,
      "ĠØ·ÙĪÙĬÙĦ": 2840,
      "ĠØ§ÙĦØ·Ø¹Ø§Ùħ": 2841,
      "ĠØªÙĥ": 2842,
      "You": 2843,
      "ron": 2844,
      "Ø§ÙĤØ©": 2845,
      "ison": 2846,
      "ĠÙĦØ¥": 2847,
      "ĠØ§ÙĦÙĩÙĪØ§Ø¡": 2848,
      "omm": 2849,
      "Ġchrist": 2850,
      "Ġinside": 2851,
      "ÙĪÙĬÙĦØ©": 2852,
      "Ġimport": 2853,
      "ĠÙĦØ¬": 2854,
      "Ġdraw": 2855,
      "Ġstate": 2856,
      "Ġcover": 2857,
      "ces": 2858,
      "ĠÙĦÙĥØ§ÙĨØª": 2859,
      "ĠÙħÙĪØ³ÙĬ": 2860,
      "ÙĩØªÙħ": 2861,
      "Ġsupport": 2862,
      "min": 2863,
      "ØºÙĬÙĬØ±": 2864,
      "ÙĬØ¡": 2865,
      "iling": 2866,
      "ÙħÙĦØ©": 2867,
      "ĠThere": 2868,
      "Ġmil": 2869,
      "why": 2870,
      "anks": 2871,
      "Ġoften": 2872,
      "Ġvis": 2873,
      "ĠØ¬Ø¯ÙĬØ¯Ø©": 2874,
      "ĠØ¨ÙĪ": 2875,
      "Ġste": 2876,
      "Ġleave": 2877,
      "An": 2878,
      "Ġweek": 2879,
      "Ġenjoy": 2880,
      "wards": 2881,
      "ĠÙģØ¶ÙĦÙĥ": 2882,
      "ÙĤØ§ÙĦ": 2883,
      "Ġcartoon": 2884,
      "ĠÙĥØ±": 2885,
      "ĠØ§ÙĦØ¹Ø±Ø¶": 2886,
      "ĠØ±Ø¨ÙħØ§": 2887,
      "ĠØ¨Ø§ÙĦÙĨ": 2888,
      "Â».": 2889,
      "Ġswe": 2890,
      "ta": 2891,
      "Ø¹ÙĬÙĨ": 2892,
      "ĠØ§ÙĦÙħØŃÙĬ": 2893,
      "Ġalb": 2894,
      "Ġsir": 2895,
      "ÙĦÙħØ§Øª": 2896,
      "ĠÙĪØ§ÙĦØ¯": 2897,
      "uff": 2898,
      "Ġword": 2899,
      "set": 2900,
      "ience": 2901,
      "Ġgard": 2902,
      "ĠØ´Ø¹Ø±": 2903,
      "ĠØ¹Ø¯Ø©": 2904,
      "ese": 2905,
      "Ġthings": 2906,
      "ĠØªØŃØ¨": 2907,
      "ÙĦÙĬØ²": 2908,
      "ĠWhat": 2909,
      "ĠØ§Ø¹": 2910,
      "Ġcor": 2911,
      "ĠEng": 2912,
      "Ġsound": 2913,
      "Ø·Ø¨Ø®": 2914,
      "eg": 2915,
      "urch": 2916,
      "ĠÙĥÙĦØ¨": 2917,
      "ĠÙĪØ¬Ùĩ": 2918,
      "Ġproject": 2919,
      "ipp": 2920,
      "ĠØ£Ø²Ø±ÙĤ": 2921,
      "ata": 2922,
      "ĠÙħØº": 2923,
      "gram": 2924,
      "ĠØ¹Ø´Ø±": 2925,
      "ĠØ§Ø«": 2926,
      "ĠØ§ÙĦØ±Ø³": 2927,
      "old": 2928,
      "jor": 2929,
      "Ġguys": 2930,
      "ĠØ¨Ø°ÙĦÙĥ": 2931,
      "Ġes": 2932,
      "ĠØ¬Ø§ÙĨØ¨": 2933,
      "Ġdet": 2934,
      "ĠÙĤØ¯Ùħ": 2935,
      "Ġcame": 2936,
      "ÙĪØ§ÙĤØ¹": 2937,
      "ĠØŃÙĤÙĬ": 2938,
      "Ġbox": 2939,
      "ÙģØªØ§Ø©": 2940,
      "His": 2941,
      "ĠØ§ÙĦÙħØ³Ø±ØŃ": 2942,
      "ÙĪÙĨØ§": 2943,
      "Ø²ÙĬØ²": 2944,
      "ÙĬØ§Ùĩ": 2945,
      "Ġever": 2946,
      "ator": 2947,
      "ĠÙĤØ¯ÙĬÙħØ©": 2948,
      "arch": 2949,
      "Ġcourse": 2950,
      "ai": 2951,
      "Ġidea": 2952,
      "round": 2953,
      "Ġlives": 2954,
      "Ġground": 2955,
      "ĠØ§ÙĦÙħÙĩ": 2956,
      "Ġmag": 2957,
      "\"\",": 2958,
      "ĠØ§ÙĦÙĨÙĩØ±": 2959,
      "Ġ5": 2960,
      "Ø¯Ø§Øª": 2961,
      "ÙĨÙĬØ³Ø©": 2962,
      "Ġrev": 2963,
      "ient": 2964,
      "ĠØ£ÙĪØ±": 2965,
      "ĠØ¬ÙĪÙĨ": 2966,
      "ĠSh": 2967,
      "ÙħÙĬØ²": 2968,
      "ĠØ³Ø§": 2969,
      "ĠØ¯Ø§Ø¦ÙħØ§": 2970,
      "aff": 2971,
      "Ġive": 2972,
      "Ø§Ø¯Ø±": 2973,
      "ness": 2974,
      "Ø§Ø¨Ø¹": 2975,
      "Ġlooks": 2976,
      "ĠØªÙĤØ¹": 2977,
      "Ġparty": 2978,
      "Ġdad": 2979,
      "ĠØ¶Ø¯": 2980,
      "ĠØŃØ¯": 2981,
      "Ø²Ùģ": 2982,
      "ĠÙħØ±Øª": 2983,
      "Ġwent": 2984,
      "Ġanim": 2985,
      "ĠØ§ÙĦØ§Ø®": 2986,
      "Ġoffice": 2987,
      "ÙĦØ¯ÙĬ": 2988,
      "that": 2989,
      "ÙĪØ§Ø³": 2990,
      "ĠØ£ÙĥØ¨Ø±": 2991,
      "ĠØ§ÙĦØ£Øº": 2992,
      "ĠÙĪØ§": 2993,
      "ĠÙĦØ¯ÙĬÙĨØ§": 2994,
      "Ġeverything": 2995,
      "ĠØ§ÙĦØªØµ": 2996,
      "ĠÙĦØ§Ø¹Ø¨": 2997,
      "Ġtoday": 2998,
      "lish": 2999,
      "just": 3000,
      "Ġfive": 3001,
      "ĠÙĦØ¯ÙĬÙĩ": 3002,
      "ction": 3003,
      "Ġcamera": 3004,
      "iding": 3005,
      "erv": 3006,
      "bs": 3007,
      "Ø¨Ø¹Ø¯": 3008,
      "Ġfree": 3009,
      "ĠØ±Ø£Ø³": 3010,
      "ÙħØ¬ÙħÙĪØ¹Ø©": 3011,
      "ÙģÙĨ": 3012,
      "ÙĦÙĬÙĨ": 3013,
      "Ġexpl": 3014,
      "Ġusing": 3015,
      "ÙĨØ¯ÙĤ": 3016,
      "Ġalbum": 3017,
      "Ġla": 3018,
      "Ġunderstand": 3019,
      "Ø£Ø¹": 3020,
      "Ġpie": 3021,
      "acter": 3022,
      "Ġwords": 3023,
      "ĠÙĬØµ": 3024,
      "Ġdead": 3025,
      "Ġmountain": 3026,
      "con": 3027,
      "Ġbott": 3028,
      "Ġhat": 3029,
      "Ġdin": 3030,
      "ØºØ±ÙģØ©": 3031,
      "ĠØ²Ø¬Ø§Ø¬": 3032,
      "Ġlaw": 3033,
      "Ġforest": 3034,
      "Ġcase": 3035,
      "Ġmr": 3036,
      "Ġvide": 3037,
      "Ġcamp": 3038,
      "ĠWh": 3039,
      "use": 3040,
      "Ġcompany": 3041,
      "Ġposter": 3042,
      "Ø¬ÙĬÙĦ": 3043,
      "ĠØ¯ÙĪÙĨ": 3044,
      "Ø¯ÙĬÙĤ": 3045,
      "que": 3046,
      "ĠØ§ÙĦØ´Ùħ": 3047,
      "dont": 3048,
      "ĠØ£Ø¯": 3049,
      "ney": 3050,
      "ĠÙħÙģ": 3051,
      "ief": 3052,
      "ĠØ§ÙĦØ£Øµ": 3053,
      "ĠÙĢ": 3054,
      "Ġhear": 3055,
      "ĠØ£Ø±Ø¬": 3056,
      "ÙĦØ¨ÙĪÙħ": 3057,
      "ĠØ¬ÙĪ": 3058,
      "ird": 3059,
      "angu": 3060,
      "ĠYou": 3061,
      "Ø£Ø¬ÙĦ": 3062,
      "ĠØ±ÙĬ": 3063,
      "ĠÙħÙĦÙĥ": 3064,
      "ÙĥÙĦØ©": 3065,
      "ĠØ§ÙĦÙħÙĦÙĥ": 3066,
      "ÙĪÙģØ±": 3067,
      "Ġ4": 3068,
      "ÙĨØ¯ÙĪÙĤ": 3069,
      "ĠØ£ÙĦÙĬØ³": 3070,
      "ĠÙģÙĤØ¯": 3071,
      "ĠFr": 3072,
      "ming": 3073,
      "ĠÙħØ«": 3074,
      "Ġocc": 3075,
      "Ø§Ø±Ø§": 3076,
      "Ø«ÙĦØ§Ø«": 3077,
      "ÙĪØ¬Ùĩ": 3078,
      "Ġcir": 3079,
      "Ġfew": 3080,
      "Ø¨ÙĬØ±": 3081,
      "Ø¬Ùĩ": 3082,
      "ĠØ§ÙĦØ£ÙģØ¶ÙĦ": 3083,
      "ĠÙĪØ³Ø·": 3084,
      "Ø´Ø§Ø¡": 3085,
      "Ġele": 3086,
      "\"\"\"": 3087,
      "ĠÙĬØ±Ùĥ": 3088,
      "she": 3089,
      "ature": 3090,
      "Ġfre": 3091,
      "Ġlisten": 3092,
      "ĠØ¹ÙĦÙħ": 3093,
      "und": 3094,
      "ÙĤØ¨ÙĦ": 3095,
      "Ġval": 3096,
      "ouch": 3097,
      "ĠÙħØ¹Ø§": 3098,
      "Ġorange": 3099,
      "Ġexper": 3100,
      "Ġstat": 3101,
      "ĠØ§ÙĦØ¹Ø´Ø¨": 3102,
      "Ġrece": 3103,
      "ÙĬØ·": 3104,
      "Ø¨Ø¹Ø¶": 3105,
      "Ġsits": 3106,
      "Ġchange": 3107,
      "ĠØªØŃØ³ÙĬÙĨ": 3108,
      "ĠØ§ÙĦÙĪØ±": 3109,
      "ØªÙħØ¹": 3110,
      "ÙĪÙħØ§": 3111,
      "ology": 3112,
      "ĠÙĪÙĤØ¯": 3113,
      "ĠØ±Ø¦ÙĬØ³": 3114,
      "vered": 3115,
      "Ġstage": 3116,
      "ĠØ§ÙĦØªÙĨ": 3117,
      "Ġdaugh": 3118,
      "ĠÙĬØ¸ÙĩØ±": 3119,
      "Ġfine": 3120,
      "ĠÙĨÙĩØ±": 3121,
      "to": 3122,
      "ØªØ¹ÙĦÙħ": 3123,
      "ĠØ§Ø´": 3124,
      "ĠØ£ÙĬÙĩØ§": 3125,
      "Ġhappened": 3126,
      "cial": 3127,
      "ĠØ¥ÙĨØª": 3128,
      "ĠÙĤØ§ÙĦ": 3129,
      "ected": 3130,
      "ÙĦØ§Ùħ": 3131,
      "ĠØ§ÙĦÙĪØ·": 3132,
      "ĠÙģÙĬÙĩ": 3133,
      "ize": 3134,
      "Ġwrong": 3135,
      "ush": 3136,
      "Ġmont": 3137,
      "Ġadv": 3138,
      "dern": 3139,
      "eth": 3140,
      "Ġresult": 3141,
      "ĠØ§ÙĦØ¯Ø±": 3142,
      "ege": 3143,
      "Ġmot": 3144,
      "ĠØ£Ø¹ÙĦÙħ": 3145,
      "itten": 3146,
      "ĠÙħØ¹Ø¸Ùħ": 3147,
      "ĠØ§ÙĦØµØº": 3148,
      "ĠØ§ÙĦÙħÙĬÙĦØ§Ø¯": 3149,
      "Ġfish": 3150,
      "ĠÙĥØ§Ø±": 3151,
      "inking": 3152,
      "Ġguy": 3153,
      "ĠØ§ÙĦØ¸": 3154,
      "ÙĨØ§ÙħØ¬": 3155,
      "ÙĬÙĨÙĬØ©": 3156,
      "Ġsays": 3157,
      "ØªÙĪÙĬ": 3158,
      "Ġcut": 3159,
      "Ø¬ÙĬ": 3160,
      "Ġcomple": 3161,
      "Ġchang": 3162,
      "ĠØ£Ø¨Ø¯Ø§": 3163,
      "ĠØ§Øµ": 3164,
      "Ġhur": 3165,
      "Ø¨ÙĪ": 3166,
      "ĠÙĬØŃØ¯Ø«": 3167,
      "Ġcovered": 3168,
      "Ġdisplay": 3169,
      "ĠØ§ÙĦÙħØ®": 3170,
      "de": 3171,
      "Ø§ÙħÙĬØ±Ø§": 3172,
      "erman": 3173,
      "af": 3174,
      "ĠØ±Ø¤": 3175,
      "ÙĤØµ": 3176,
      "Ġtechn": 3177,
      "ĠÙħÙĤØ§Ø·Ø¹Ø©": 3178,
      "ĠØªÙĤÙĪÙĦ": 3179,
      "Ø¬Ø§ÙĨ": 3180,
      "Ġreturn": 3181,
      "Ø§ÙĨÙĪÙĨ": 3182,
      "Ġnice": 3183,
      "Ø¬Ø¯": 3184,
      "Ġfilled": 3185,
      "Ġlogo": 3186,
      "ĠÙĨÙģØ³Ùĩ": 3187,
      "Ġpolit": 3188,
      "ÙĪØ¨Ø±": 3189,
      "Ġtimes": 3190,
      "ĠØ³ÙĨÙĪØ§Øª": 3191,
      "ĠÙħØ¯Ø±Ø³Ø©": 3192,
      "Ġcontro": 3193,
      "med": 3194,
      "board": 3195,
      "ÙĦØ§Ø¡": 3196,
      "ÙĪØ§Ø¡": 3197,
      "ĠØ§ÙĦØ§ØŃ": 3198,
      "Ġdesc": 3199,
      "ches": 3200,
      "Ġwife": 3201,
      "Ø¸Ø§Ùħ": 3202,
      "apt": 3203,
      "Ġsuit": 3204,
      "ØªÙĪÙĨ": 3205,
      "ĠDo": 3206,
      "itchen": 3207,
      "Ġclear": 3208,
      "ÙħØªØ¹": 3209,
      "Ġhang": 3210,
      "Ġactiv": 3211,
      "Ġstory": 3212,
      "Ġflag": 3213,
      "Ġprof": 3214,
      "Ġrunning": 3215,
      "Ġcharacter": 3216,
      "ÙĥÙĨØª": 3217,
      "che": 3218,
      "ians": 3219,
      "Ġsurround": 3220,
      "Ġbag": 3221,
      "ĠÙĤÙĦÙĬ": 3222,
      "Ġfootball": 3223,
      "Ø£ÙĬ": 3224,
      "ung": 3225,
      "ÙħØ·": 3226,
      "ØªØ±Ø§": 3227,
      "Ġkitchen": 3228,
      "cean": 3229,
      "Ġimportant": 3230,
      "Ġcard": 3231,
      "ĠØŃÙĤÙĦ": 3232,
      "Ġstyle": 3233,
      "Ġlake": 3234,
      "Ġtrack": 3235,
      "Ø§Ø¶ÙĬØ©": 3236,
      "ÙĪØ´": 3237,
      "ĠØ§ÙĦÙĨØ¬Ø§ØŃ": 3238,
      "Ġstri": 3239,
      "Ġtheres": 3240,
      "ĠÙĨØ´": 3241,
      "Ø§Ø¦Ø¯": 3242,
      "Ø²Ø§": 3243,
      "ection": 3244,
      "Ø®Ø¨Ø±": 3245,
      "ival": 3246,
      "Ø±ÙĥØ§Øª": 3247,
      "ral": 3248,
      "ĠØ§ÙĦÙħØ¯Ø±Ø³Ø©": 3249,
      "ills": 3250,
      "Ø±Ø¨ÙĬØ©": 3251,
      "ÙĨØ¨": 3252,
      "Ġcross": 3253,
      "ĠØ§ÙĪ": 3254,
      "ĠÙħØ·": 3255,
      "Ġinclude": 3256,
      "ĠØ¯ÙĬ": 3257,
      "ĠØ£Ø³ØªØ·ÙĬØ¹": 3258,
      "uced": 3259,
      "ÙħÙĥØ§ÙĨ": 3260,
      "Ġpaper": 3261,
      "Ġlangu": 3262,
      "Ø§Ø¨Øª": 3263,
      "ÙĦÙħØ§Ø°Ø§": 3264,
      "Ġsand": 3265,
      "ilt": 3266,
      "ÙĬØ±ÙĬ": 3267,
      "Ġmajor": 3268,
      "ched": 3269,
      "Ġquest": 3270,
      "Ø§ÙĦØ¨Ø§": 3271,
      "Ġmovie": 3272,
      "ially": 3273,
      "Ġmind": 3274,
      "ĠÙģØ§Ø±": 3275,
      "ĠØ§ÙĦÙħØªØŃØ¯Ø©": 3276,
      "ÙĪÙħÙĬ": 3277,
      "Ġmountains": 3278,
      "Ġaf": 3279,
      "Ġgarden": 3280,
      "Ġyourself": 3281,
      "ĠØ³Ø±ÙĬØ±": 3282,
      "ĠÙĬÙħÙĥÙĨÙĨÙĬ": 3283,
      "Ġstands": 3284,
      "aster": 3285,
      "Ġhappy": 3286,
      "Ġhuman": 3287,
      "ÙĪØ§Ø¹": 3288,
      "Ø¨ØªØ³Ùħ": 3289,
      "Ġflower": 3290,
      "Ø¸Ø§": 3291,
      "Ġdem": 3292,
      "Ġvillage": 3293,
      "ĠØ§ÙĨÙĩØ§": 3294,
      "ĠÙħØ±ØŃØ¨Ø§": 3295,
      "ĠØ¨Øµ": 3296,
      "Ġfly": 3297,
      "Ġplayed": 3298,
      "Ø«Ø©": 3299,
      "Ġ\"\"\"": 3300,
      "ĠÙĪØ®": 3301,
      "ÙĪØ¨Ø§": 3302,
      "ÙĬØ¬Ø¨": 3303,
      "rict": 3304,
      "ĠØ§ÙĦØ®Ø§Ø±Ø¬": 3305,
      "ĠØ§ÙĦØ§Ø¬": 3306,
      "ĠØ¨ÙĨØ§Ø¡": 3307,
      "ĠÙĬØ¹Ø±Ùģ": 3308,
      "ĠØ£Ø¨ÙĬ": 3309,
      "Ġothers": 3310,
      "ĠCl": 3311,
      "ÙĦÙĬØ§": 3312,
      "Ġdeath": 3313,
      "Ġphone": 3314,
      "Ø·ÙĦØ¨": 3315,
      "ĠØ¨ÙĨÙĬ": 3316,
      "Ġnorth": 3317,
      "ØµØ¨": 3318,
      "ĠØŃØ¯ÙĬÙĤØ©": 3319,
      "Ø±ÙĬÙģ": 3320,
      "Ġap": 3321,
      "Ø³Ø§ÙĨ": 3322,
      "Ø¸ÙĬÙħ": 3323,
      "ĠØªÙħØ§ÙħØ§": 3324,
      "Ġboat": 3325,
      "Ġwithout": 3326,
      "ĠØ®Ø¶Ø±Ø§Ø¡": 3327,
      "Ġjob": 3328,
      "ĠAmer": 3329,
      "ĠØ§ÙĦÙĦÙĬÙĦ": 3330,
      "ĠÙĦØ§ØŃÙĤØ§": 3331,
      "ĠÙĨÙĩØ§ÙĬØ©": 3332,
      "ĠÙĪÙħØ¹": 3333,
      "ĠØ§ÙĦÙħØŃÙĬØ·": 3334,
      "Ø§ÙĦÙĬØ§": 3335,
      "ĠÙĬØ£": 3336,
      "ounc": 3337,
      "Ġgetting": 3338,
      "ĠØ§ÙĦØ¨Ø¹Ø¶": 3339,
      "ĠÙĤÙĦ": 3340,
      "Ġpolice": 3341,
      "Ø·ÙĦØ§ÙĤ": 3342,
      "Ġmonth": 3343,
      "ÙĪØ±ÙĬØ©": 3344,
      "Ġrequ": 3345,
      "ĠØ§Ø¹Øª": 3346,
      "ĠØ§ÙĦØ¬Ø§ÙĨØ¨": 3347,
      "Ġmarried": 3348,
      "Ø§Ø¨ÙĬ": 3349,
      "Ġshowing": 3350,
      "ĠÙĪØ§ÙĦØ¹": 3351,
      "Ø§ÙĦØ¹": 3352,
      "Ġpicture": 3353,
      "uro": 3354,
      "Ġsal": 3355,
      "ĠØ§ÙĦØºØ§Ø¨Ø©": 3356,
      "ica": 3357,
      "Ġabove": 3358,
      "Ø¨ØŃØ«": 3359,
      "ler": 3360,
      "ÙĪÙĬØª": 3361,
      "aint": 3362,
      "Ġconf": 3363,
      "ĠÙħÙĥØªØ¨": 3364,
      "ĠØ³ÙĬÙĥÙĪÙĨ": 3365,
      "Ġbridge": 3366,
      "Ø§ØµÙĦ": 3367,
      "ÙĥØ§Øª": 3368,
      "alf": 3369,
      "ĠØ§ÙĦØŃØ±Ø¨": 3370,
      "Ø²Ø¨": 3371,
      "ĠØ§ÙĦØªØ¬": 3372,
      "ĠØ¬ÙħÙĬÙĦØ©": 3373,
      "ØµÙģØ±": 3374,
      "ĠÙĪØ¥": 3375,
      "Ø®Ø©": 3376,
      "Ø¤Ø¯ÙĬ": 3377,
      "ondon": 3378,
      "Ġsaw": 3379,
      "Ġlocal": 3380,
      "Ġport": 3381,
      "ĠÙħØ¹Ùĥ": 3382,
      "ĠØ±ÙħØ§": 3383,
      "uit": 3384,
      "Ġprogram": 3385,
      "ĠÙĩØ§": 3386,
      "ĠØªØµÙħÙĬÙħ": 3387,
      "ØºÙĦ": 3388,
      "Wh": 3389,
      "Ġtom": 3390,
      "alth": 3391,
      "ĠØ¬Ø¯Ø§Ø±": 3392,
      "Ġpartic": 3393,
      "ĠØªØ¹Ø¯": 3394,
      "ĠÙħÙĦÙĬØ¦Ø©": 3395,
      "ĠØ§ÙĦØ§Øª": 3396,
      "bur": 3397,
      "Ġpower": 3398,
      "Ġmodern": 3399,
      "Ġbody": 3400,
      "por": 3401,
      "ÙĨØ§Ø³": 3402,
      "Ġdoesnt": 3403,
      "ĠØ·ÙĪÙĬÙĦØ©": 3404,
      "ĠØ³ÙĬØ¯ÙĬ": 3405,
      "ÙĤØªÙĦ": 3406,
      "ĠÙĪÙĦØ¯": 3407,
      "ense": 3408,
      "ĠÙĤØ¯ÙĬÙħ": 3409,
      "Ġclou": 3410,
      "Ġchristmas": 3411,
      "ĠÙħÙĬ": 3412,
      "ĠUniversity": 3413,
      "ĠØ§Ø³": 3414,
      "ately": 3415,
      "Ø³Ø§Ø¹Ø¯Ø©": 3416,
      "Ġready": 3417,
      "ĠØ£Ø³Øª": 3418,
      "Ġprint": 3419,
      "ÙĨØŃÙĨ": 3420,
      "ÙĥØ°Ø§": 3421,
      "Ġmap": 3422,
      "key": 3423,
      "ĠØ®Ø´Ø¨ÙĬ": 3424,
      "ÙĩÙĦØ§": 3425,
      "ĠÙĦÙĪØŃ": 3426,
      "ØŃÙħ": 3427,
      "ored": 3428,
      "Ġtour": 3429,
      "Ġbur": 3430,
      "ĠØ¬ÙĬØ¯Ø©": 3431,
      "ÙĩØ§Ùħ": 3432,
      "ĠMar": 3433,
      "'m": 3434,
      "ĠØ§ÙĦØ«ÙĦØ¬": 3435,
      "Ø±Ø¯ÙĬØ©": 3436,
      "Ø¶Ø§ÙģØ©": 3437,
      "ĠÙĦÙĦØ¹": 3438,
      "ÙĥÙĪÙħØ©": 3439,
      "Ġocean": 3440,
      "Ġbride": 3441,
      "co": 3442,
      "ribut": 3443,
      "ĠØ¨Ø¹": 3444,
      "Ġgovernment": 3445,
      "ider": 3446,
      "ÙħÙĬÙĨ": 3447,
      "ĠÙĦÙĤ": 3448,
      "ÙĪØ¨ÙĬ": 3449,
      "ÙĩØ±Ø¨": 3450,
      "Ġproduct": 3451,
      "ÙĬØªÙĬ": 3452,
      "ÙĪÙĬÙĨ": 3453,
      "aced": 3454,
      "ĠØ¨ÙĩØ°Ø§": 3455,
      "Ġplate": 3456,
      "Ø¬Ø§Øª": 3457,
      "Ø³ÙĬØ§": 3458,
      "Ġposs": 3459,
      "gin": 3460,
      "ĠÙħÙĨÙĩ": 3461,
      "Ġcontinu": 3462,
      "ĠØ§ÙĦØŃÙĬ": 3463,
      "Ø¯Ø§ÙĬØ©": 3464,
      "ĠIs": 3465,
      "ĠÙĨÙĪØ¹": 3466,
      "ĠHis": 3467,
      "ĠÙħÙĥØª": 3468,
      "Ø¬ÙĦØ©": 3469,
      "ĠØ£ÙħØ±": 3470,
      "ØªØª": 3471,
      "Ø¨Ø§ÙĤ": 3472,
      "Ø·Ø¨Ø¹": 3473,
      "cus": 3474,
      "Ġisland": 3475,
      "Ġtrad": 3476,
      "Ø±Ø§Ø¯": 3477,
      "ĠÙħÙħ": 3478,
      "Ġsum": 3479,
      "ĠØ¨Ø§ÙĦÙĦÙĪÙĨ": 3480,
      "ĠØ§ÙĦØ¨ØŃØ±": 3481,
      "Ġseries": 3482,
      "Ġvideo": 3483,
      "ĠØ§ÙĦÙĦÙĬ": 3484,
      "Ø§Ø¨ÙĤØ©": 3485,
      "Ø§Ø·ÙĤ": 3486,
      "ÙĪÙĨØª": 3487,
      "ĠØ§ÙĦÙĤØ¯ÙĬÙħØ©": 3488,
      "ham": 3489,
      "ĠØ§ÙĦØ¹ÙĦ": 3490,
      "Ġ19": 3491,
      "Ø§Ø¨Ø·": 3492,
      "ract": 3493,
      "ĠÙĪØ¶Ø¹": 3494,
      "Ġra": 3495,
      "Ø³Ø¨ÙĪØ¹": 3496,
      "Ġfriends": 3497,
      "ĠØ§ÙĦØ¬ÙĬØ¯": 3498,
      "ÙĥØ§Ø±": 3499,
      "Ø´ÙĬØ§Ø¡": 3500,
      "ÙĨØ²": 3501,
      "Ġcoff": 3502,
      "ĠØªØ¹ÙħÙĦ": 3503,
      "Ġcost": 3504,
      "okay": 3505,
      "ream": 3506,
      "ÙĬØ§Ùħ": 3507,
      "Ġhon": 3508,
      "itar": 3509,
      "aken": 3510,
      "ĠÙħØ¹Ø¯": 3511,
      "ÙģÙĦØ©": 3512,
      "Ġeyes": 3513,
      "Ġswim": 3514,
      "ÙĩÙī": 3515,
      "ann": 3516,
      "Ġshows": 3517,
      "ĠÙħØ±Ùĥ": 3518,
      "ĠÙĥØªØ¨": 3519,
      "Ġsentence": 3520,
      "ĠÙĦÙĩØ°Ø§": 3521,
      "ĠÙĦØ°ÙĦÙĥ": 3522,
      "Ġcond": 3523,
      "Ġpal": 3524,
      "ĠÙĥØ§ÙĦ": 3525,
      "ĠØ§ÙĦØ³Ø¨": 3526,
      "ĠØ§ÙĦÙĪÙĦØ§": 3527,
      "Ġwont": 3528,
      "Ġcomput": 3529,
      "Ġtheyre": 3530,
      "Ġpoint": 3531,
      "Ġfall": 3532,
      "Ġshop": 3533,
      "Ġ`": 3534,
      "ĠØ±Ø§Ø¦Ø¹": 3535,
      "Ġgiv": 3536,
      "Ø¯ÙĬØ§": 3537,
      "ĠØ¬Ø§ÙĦ": 3538,
      "Ġdays": 3539,
      "Ġmarket": 3540,
      "Ø²ÙĬØ§Ø¡": 3541,
      "Ġproblem": 3542,
      "Ġpast": 3543,
      "ĠØ§ÙĦÙĤØ¯": 3544,
      "ĠØ§ÙĦØ£Ø¨ÙĬØ¶": 3545,
      "Ø¯ÙĬÙĦ": 3546,
      "ĠØ°ÙĩØ¨": 3547,
      "Ġenough": 3548,
      "ĠLe": 3549,
      "Ġpattern": 3550,
      "Ġboard": 3551,
      "ĠÙĬÙĤÙĪÙĦ": 3552,
      "ĠCount": 3553,
      "ĠØ§ÙĦØ£Ø´Ø¬Ø§Ø±": 3554,
      "Ġkne": 3555,
      "ĠInd": 3556,
      "Ġphotograph": 3557,
      "ÙĤÙĪÙĦ": 3558,
      "ĠØ³Ø±": 3559,
      "Ġwanted": 3560,
      "Ø§ÙĩØ¯": 3561,
      "Ġmoment": 3562,
      "ĠØ·Ø¨ÙĬ": 3563,
      "Ġfight": 3564,
      "Ø§ÙĨÙĩ": 3565,
      "ĠØ¹Ø¨": 3566,
      "ØªØ§": 3567,
      "Ø°Ø±": 3568,
      "ĠØµØŃ": 3569,
      "ĠØ¨ÙĪØ§Ø³": 3570,
      "Ġinform": 3571,
      "ĠØ§ÙĦÙģÙĬÙĦÙħ": 3572,
      "Ø¨ÙĪÙĦ": 3573,
      "ĠØ³ØªØ±Ø©": 3574,
      "Ø¯Ø§Ø±Ø©": 3575,
      "ÙĩÙħØ©": 3576,
      "ram": 3577,
      "Ø³Ø§Ø³": 3578,
      "Ø±ÙĬÙĥÙĬ": 3579,
      "ĠØ´Ø§Ø±Ø¹": 3580,
      "Ġbowl": 3581,
      "ĠØ§ÙĦÙħØ§ÙĦ": 3582,
      "ĠØŃØ§ÙĦÙĬØ§": 3583,
      "ĠØªØº": 3584,
      "Ġcommon": 3585,
      "ÙĨØ¯ÙĨ": 3586,
      "Ġserved": 3587,
      "ĠØ¨ÙĦØ§": 3588,
      "Ġsn": 3589,
      "icult": 3590,
      "Ġlost": 3591,
      "Ġfact": 3592,
      "ĠØ§ÙĦØµÙĪØ±Ø©": 3593,
      "ĠØ§ÙĦÙĩÙĨØ¯": 3594,
      "ĠÙĪØµ": 3595,
      "Ø¬Ø§": 3596,
      "Ġhotel": 3597,
      "Ġsince": 3598,
      "ĠÙĨØ³": 3599,
      "Ø±Ø¨ÙħØ§": 3600,
      "ready": 3601,
      "ĠÙĩÙħ": 3602,
      "Ġstar": 3603,
      "ĠÙħØ¹ÙĬ": 3604,
      "erest": 3605,
      "ĠØ§ÙĦØ£Ø·ÙģØ§ÙĦ": 3606,
      "ĠØ£Ø®Ø¶Ø±": 3607,
      "ĠØ¨ÙĪØ§Ø³Ø·Ø©": 3608,
      "ories": 3609,
      "Ġdiv": 3610,
      "ĠØ£ÙĨÙĨÙĬ": 3611,
      "ÙĥÙħØ©": 3612,
      "Ġship": 3613,
      "ortun": 3614,
      "ÙĦÙĬØ§Øª": 3615,
      "ĠØ§ÙĦØµØºÙĬØ±Ø©": 3616,
      "ĠÙĪØ²": 3617,
      "Ġfar": 3618,
      "ĠØ§ÙĦØ¬Ø¯ÙĬØ¯Ø©": 3619,
      "Ġmaybe": 3620,
      "ĠÙħØ±ÙĥØ²": 3621,
      "Ø´Ø§Ø±": 3622,
      "Ġbath": 3623,
      "ĠØªÙĪØ¶": 3624,
      "ĠÙĬØ±Øª": 3625,
      "ĠØ§ÙĦØªÙģ": 3626,
      "Ø¢ÙĨ": 3627,
      "ĠØ¹Ø§Ø¯Ø©": 3628,
      "ĠÙĤÙħÙĬØµØ§": 3629,
      "Ġdam": 3630,
      "ĠØ§ÙĦÙħØ·": 3631,
      "Ġkn": 3632,
      "ĠØ¹Ø¶": 3633,
      "Ġcheck": 3634,
      "ĠØ§ÙĦØ®Ø§Øµ": 3635,
      "Ġsix": 3636,
      "ÙĨÙĪØ¹Ø©": 3637,
      "Ġbase": 3638,
      "ĠØ¯ÙĪØ±": 3639,
      "ĠAll": 3640,
      "ÙħÙĬØ©": 3641,
      "Ø¹Ø¯Ø§Ø¯": 3642,
      "apan": 3643,
      "Ġspeak": 3644,
      "ĠØ§ÙĦØ±Ø¦ÙĬØ³ÙĬ": 3645,
      "Ġlearn": 3646,
      "Ø§ÙĦØ§": 3647,
      "ĠØ´Ø¦": 3648,
      "orning": 3649,
      "Ġann": 3650,
      "rest": 3651,
      "Ø«Ùħ": 3652,
      "Ġnews": 3653,
      "ĠÙĬØ¹Ø¯": 3654,
      "ÙĪØ±Øª": 3655,
      "Ø¶ÙħÙĨ": 3656,
      "ĠÙĦÙĦÙĥ": 3657,
      "Ġdied": 3658,
      "Ġwithin": 3659,
      "Ġremember": 3660,
      "ither": 3661,
      "Ø´Ø±Ø©": 3662,
      "ention": 3663,
      "ĠØ§ÙĦØ³Ø§Ø¹Ø©": 3664,
      "Ġdaughter": 3665,
      "Ø¹Ø¶Ø§Ø¡": 3666,
      "Ġpret": 3667,
      "Ġfollowing": 3668,
      "Ġdata": 3669,
      "ĠÙĨØª": 3670,
      "ĠÙĦØ¹Ø¨": 3671,
      "ĠØ§ÙĦØ¬Ø¯ÙĬØ¯": 3672,
      "Ġgirls": 3673,
      "Ø¨ÙĬÙĦ": 3674,
      "ran": 3675,
      "ĠCan": 3676,
      "ery": 3677,
      "Ġcoffee": 3678,
      "Ø°Ø¨": 3679,
      "ables": 3680,
      "Ġbal": 3681,
      "omp": 3682,
      "mm": 3683,
      "ĠØªØ¹ØªÙĤØ¯": 3684,
      "ĠØ§ÙĦØŃØ¯ÙĬÙĤØ©": 3685,
      "ĠØ§ÙĦØ²ÙĩÙĪØ±": 3686,
      "ØŃØª": 3687,
      "ĠÙħÙĦØµÙĤ": 3688,
      "Ġcrow": 3689,
      "ency": 3690,
      "Ġmodel": 3691,
      "ĠØ³Ùĥ": 3692,
      "ÙĦÙĬØ¨": 3693,
      "ÙģØ±ÙĬÙĤ": 3694,
      "Ġcal": 3695,
      "Ø·Ø§ÙĤ": 3696,
      "ÙĩØ±Ø©": 3697,
      "Ø¹ÙĦØ§Ùħ": 3698,
      "Ġkilled": 3699,
      "ĠÙħØªØŃ": 3700,
      "Ġcup": 3701,
      "ĠØ§ÙĦÙģØª": 3702,
      "Ġelse": 3703,
      "ĠÙĦØªØŃ": 3704,
      "ective": 3705,
      "Ġplant": 3706,
      "hor": 3707,
      "Ø§ÙĨÙĥ": 3708,
      "Ġshown": 3709,
      "ØºÙĬÙĦ": 3710,
      "Ġeduc": 3711,
      "ĠØ±Ø¬": 3712,
      "Ġdel": 3713,
      "ĠØ¨Ø§ÙĦÙĥ": 3714,
      "ÙĩÙĬØ§": 3715,
      "ĠJohn": 3716,
      "Ġyet": 3717,
      "ĠØ§ÙĦÙĨÙĤ": 3718,
      "ÙĪÙģÙĬ": 3719,
      "ĠÙĤÙĦØª": 3720,
      "Ø°ÙĬØ©": 3721,
      "Ġstep": 3722,
      "Ġdecor": 3723,
      "ĠØ§ÙĦØ³ÙĬØ§Ø±Ø©": 3724,
      "ĠØ¨ÙĪÙĦ": 3725,
      "Ø§Ø´Ø©": 3726,
      "Ġcommunity": 3727,
      "Ġstrong": 3728,
      "ship": 3729,
      "asket": 3730,
      "bed": 3731,
      "ÙħØ²": 3732,
      "Ġsouth": 3733,
      "ÙĥÙĦØ§": 3734,
      "ĠÙģÙĬÙĩØ§": 3735,
      "ĠSp": 3736,
      "Ġseem": 3737,
      "unch": 3738,
      "Ġpool": 3739,
      "Ġfig": 3740,
      "Ø§ØŃÙĬØ©": 3741,
      "ĠWe": 3742,
      "lebr": 3743,
      "ering": 3744,
      "Ġequ": 3745,
      "ÙĪØªØ±": 3746,
      "ÙĩÙĪØ©": 3747,
      "Ø¨ÙĬØ©": 3748,
      "Ġartist": 3749,
      "Ġmight": 3750,
      "oman": 3751,
      "Ġincluding": 3752,
      "Ø±ÙĬØ·Ø©": 3753,
      "yl": 3754,
      "ĠØ£Ø¸ÙĨ": 3755,
      "ĠÙĬØ³ØªØ®Ø¯Ùħ": 3756,
      "Ġrain": 3757,
      "Ġalready": 3758,
      "Ġsleep": 3759,
      "ĠÙĥØ«ÙĬØ±Ø§": 3760,
      "Ġhorse": 3761,
      "ÙĩÙĨ": 3762,
      "Ġwritten": 3763,
      "Ġlay": 3764,
      "ĠØ²ÙĬ": 3765,
      "Ø¨ÙĬØª": 3766,
      "Ġhowever": 3767,
      "bor": 3768,
      "ared": 3769,
      "ument": 3770,
      "ĠØ®ÙĬ": 3771,
      "We": 3772,
      "Ġtit": 3773,
      "ĠØ£Ø±Ø¶": 3774,
      "ĠØªÙĥÙĨ": 3775,
      "Ø®ÙĬ": 3776,
      "Ġpopular": 3777,
      "Ġtaking": 3778,
      "arl": 3779,
      "ĠØ·ÙĪÙĦ": 3780,
      "Ġsold": 3781,
      "Ġfollow": 3782,
      "ĠÙĦØ¯Ùī": 3783,
      "Do": 3784,
      "ĠØ¸ÙĩØ±": 3785,
      "ĠØ¨Ø±Øª": 3786,
      "Ø°Ùĥ": 3787,
      "\"ØĮ": 3788,
      "ably": 3789,
      "ÙĥÙĦØ¨": 3790,
      "ench": 3791,
      "ĠØ§ÙĦØ¥ÙĨØª": 3792,
      "ÙħØ³Ø©": 3793,
      "Ø£Ø¹ØªÙĤØ¯": 3794,
      "Ġbooks": 3795,
      "Ġsaying": 3796,
      "ĠÙģØŃ": 3797,
      "ĠØ§ÙĦÙģØ±ÙĬÙĤ": 3798,
      "However": 3799,
      "ĠØ£ÙģØ¹ÙĦ": 3800,
      "Ġcenter": 3801,
      "ĠØ£ÙħÙĬ": 3802,
      "Ġtrave": 3803,
      "ĠØ§Ø®Øª": 3804,
      "Ġpresent": 3805,
      "Ġspecial": 3806,
      "Ġfucking": 3807,
      "Ġmakes": 3808,
      "ĠØ§ÙĦÙĤØ·": 3809,
      "ĠÙħÙĪØ¬": 3810,
      "ĠØ§ÙĦÙħÙĤØ¯": 3811,
      "Ġvarious": 3812,
      "ÙĤØ§Ùħ": 3813,
      "Ġinterest": 3814,
      "til": 3815,
      "ĠØ£Ø¹ÙħØ§ÙĦ": 3816,
      "ĠØªØ³ØªØ®Ø¯Ùħ": 3817,
      "Ġrestaur": 3818,
      "ÙĦÙĬØ²ÙĬØ©": 3819,
      "Ġprocess": 3820,
      "Ġacross": 3821,
      "ases": 3822,
      "Ġnational": 3823,
      "Ġleaves": 3824,
      "ĠÙĨØµ": 3825,
      "Ø³ÙĪÙģ": 3826,
      "ĠÙĤØªÙĦ": 3827,
      "most": 3828,
      "ÙĪÙĦÙĪØ¬": 3829,
      "ĠØ§ÙĦØ£ÙĦ": 3830,
      "Ø§Ø±Øª": 3831,
      "Ġest": 3832,
      "ĠØ¬Ø§ÙħØ¹Ø©": 3833,
      "ĠØ§ÙĦØ®ÙĦÙģ": 3834,
      "Ġpresident": 3835,
      "ateg": 3836,
      "ĠBl": 3837,
      "ÙģÙĦØ§Ùħ": 3838,
      "Ġbreak": 3839,
      "ØŃÙĦØ©": 3840,
      "ĠØ¨Ø§ÙĦØ¥": 3841,
      "ÙĬÙĨØº": 3842,
      "ĠÙĤÙĦÙĬÙĦØ§": 3843,
      "anna": 3844,
      "Ø£ÙĬÙĨ": 3845,
      "phone": 3846,
      "ĠØ§ÙĦØ³ÙĨ": 3847,
      "ĠÙĪØ¬ÙĪØ¯": 3848,
      "ĠÙĨØŃÙĪ": 3849,
      "ĠØ¨Ø§ÙĦØŃ": 3850,
      "Ġthanks": 3851,
      "ĠØ§ÙĦØµÙģ": 3852,
      "Ġconstr": 3853,
      "ÙĬÙĨØ²": 3854,
      "ĠØ§ÙĦØ«Ø§ÙĨÙĬ": 3855,
      "head": 3856,
      "ÙĢØ§": 3857,
      "Ġmaking": 3858,
      "Ġhour": 3859,
      "aving": 3860,
      "ĠØ§ÙĦØ£Ø¹ÙħØ§ÙĦ": 3861,
      "Ġsomeone": 3862,
      "ĠØ§ÙĦØ§Ø¬ØªÙħØ§": 3863,
      "ÙĤØ§Øª": 3864,
      "ĠÙĦØ´": 3865,
      "ÙĬØªØ§Ø±": 3866,
      "Ø¯ÙħØ§Øª": 3867,
      "Ġoriginal": 3868,
      "Ġmess": 3869,
      "osp": 3870,
      "ĠÙĬÙħØ´ÙĬ": 3871,
      "Ø§Ø¬Ø§Øª": 3872,
      "ĠÙĤØ§Ø¯": 3873,
      "artment": 3874,
      "ences": 3875,
      "Ø¨ÙĬØ¹": 3876,
      "Ġtem": 3877,
      "ĠØ§Ø°": 3878,
      "ØµÙĬÙģ": 3879,
      "ĠØ±Ø¬Ø§ÙĦ": 3880,
      "Ø§Ø·Ø©": 3881,
      "ĠÙĤÙħØ©": 3882,
      "Ġpract": 3883,
      "ÙĪÙĦÙĥÙĨ": 3884,
      "Ġchurch": 3885,
      "ĠÙĤØ¨Ø¹Ø©": 3886,
      "lf": 3887,
      "Ġsunset": 3888,
      "Ø¹ÙĦÙĬ": 3889,
      "Ġtele": 3890,
      "As": 3891,
      "Ġsqu": 3892,
      "Ġisnt": 3893,
      "ille": 3894,
      "Ġpot": 3895,
      "unk": 3896,
      "can": 3897,
      "ye": 3898,
      "Ø·ÙģÙĦ": 3899,
      "Ġearly": 3900,
      "ette": 3901,
      "tain": 3902,
      "Ø¹ÙĪØ¯": 3903,
      "Ġrele": 3904,
      "ĠÙģÙĬÙĦÙħ": 3905,
      "ÙĨØ§ÙĪÙĦ": 3906,
      "ĠØ§ÙĦØªÙĪ": 3907,
      "Ġcelebr": 3908,
      "aged": 3909,
      "ĠØªÙĪØ¬Ø¯": 3910,
      "Ø¹Ùĥ": 3911,
      "ĠØ§ÙĦÙħØº": 3912,
      "Ġbird": 3913,
      "ĠØ¨ÙĢ": 3914,
      "ØŃØ§": 3915,
      "ĠÙĬÙĤÙģÙĪÙĨ": 3916,
      "ĠÙħÙģØªÙĪØŃ": 3917,
      "ĠØ¨ÙĬØ±": 3918,
      "ĠÙĥÙĪÙĨ": 3919,
      "Ġsoon": 3920,
      "Ġbecome": 3921,
      "ĠØ§ÙĦØ¨Ø§Ø¨": 3922,
      "whats": 3923,
      "Ġbuildings": 3924,
      "Ġdrink": 3925,
      "ĠÙĬÙĨØª": 3926,
      "orts": 3927,
      "Ġbank": 3928,
      "Ġtrying": 3929,
      "ĠTr": 3930,
      "Ġjacket": 3931,
      "ĠÙģÙĥØ±Ø©": 3932,
      "ĠØ¨Ø³": 3933,
      "ĠØªÙħØª": 3934,
      "ances": 3935,
      "ission": 3936,
      "ĠØ¬Ø¯ÙĬØ¯": 3937,
      "Ġgun": 3938,
      "ÙĬÙĬÙĨ": 3939,
      "Ġfac": 3940,
      "ĠØ£Ø·ÙģØ§ÙĦ": 3941,
      "ĠØ§ÙĦÙħÙĥØ§ÙĨ": 3942,
      "ĠØ³Ø¹ÙĬØ¯": 3943,
      "ern": 3944,
      "ĠØ§ÙĦØ¹Ø§ÙħØ©": 3945,
      "ĠColl": 3946,
      "Ġguitar": 3947,
      "look": 3948,
      "Ġheard": 3949,
      "Ġdrawing": 3950,
      "Ġvector": 3951,
      "Ø¨Ø§ØªØ§Øª": 3952,
      "wood": 3953,
      "ĠØ¬Ø¯": 3954,
      "Ġworks": 3955,
      "ĠDe": 3956,
      "Ġpurple": 3957,
      "Ġmeans": 3958,
      "mbers": 3959,
      "ØŃÙĥ": 3960,
      "Ġje": 3961,
      "icle": 3962,
      "Ġmembers": 3963,
      "Ġgrand": 3964,
      "itional": 3965,
      "Ġmorning": 3966,
      "Ġtyp": 3967,
      "Ø¨ÙĬØ§": 3968,
      "ĠØ§ÙĦÙħØ¨ÙĨÙī": 3969,
      "ĠÙģØ¥ÙĨ": 3970,
      "pty": 3971,
      "Ġbasket": 3972,
      "Ġtry": 3973,
      "Ġaw": 3974,
      "Ø§Ø¦Ø¹": 3975,
      "Ġdeal": 3976,
      "ĠØ§ÙĦÙħÙĨØ§": 3977,
      "ality": 3978,
      "ma": 3979,
      "ror": 3980,
      "ĠCounty": 3981,
      "ÙĨÙĪÙĨ": 3982,
      "atic": 3983,
      "Ø·Ø§Ø¡": 3984,
      "Ġdescri": 3985,
      "vious": 3986,
      "Ġexc": 3987,
      "ÙģØ§ÙĤ": 3988,
      "ĠÙħØºØ·": 3989,
      "ĠÙĥÙĨ": 3990,
      "Ġprem": 3991,
      "Ø§ÙĦÙģ": 3992,
      "itions": 3993,
      "ĠÙħÙĨØŃ": 3994,
      "Ġable": 3995,
      "ÙĪØ§ÙĨØ§Øª": 3996,
      "Ġnet": 3997,
      "ÙĪÙĦÙĬØ©": 3998,
      "Ġbedroom": 3999,
      "dd": 4000,
      "ps": 4001,
      "Ġ6": 4002,
      "ÙĦÙĤÙĬ": 4003,
      "Ø´ÙĥØ±Ø§": 4004,
      "Ġconn": 4005,
      "ĠØ¨Ø¯ÙĦØ©": 4006,
      "ĠØ§ÙĦØ£Ø³ÙĪØ¯": 4007,
      "Ġparked": 4008,
      "ĠÙĬÙģ": 4009,
      "Ø§Ø¨Ø¹Ø©": 4010,
      "Ġhaving": 4011,
      "Ġcast": 4012,
      "ĠZ": 4013,
      "Ġlab": 4014,
      "ÙħØ±ØŃØ¨Ø§": 4015,
      "Ġant": 4016,
      "ĠÙĥØ±Øª": 4017,
      "ĠPark": 4018,
      "Ġavail": 4019,
      "ĠÙĪØ§ÙĤ": 4020,
      "arr": 4021,
      "ĠÙĦÙĨØ¯ÙĨ": 4022,
      "ĠÙĪØ§ÙĦØŃ": 4023,
      "Ġdirect": 4024,
      "ĠØ§ÙĦØ¬Ø¨Ø§ÙĦ": 4025,
      "Ġservice": 4026,
      "ĠÙħØ¬ÙĦØ³": 4027,
      "ØµØ§": 4028,
      "ĠSc": 4029,
      "urope": 4030,
      "Ġcop": 4031,
      "ĠØ±Ø£ÙĬØª": 4032,
      "ze": 4033,
      "Ġsea": 4034,
      "were": 4035,
      "ĠØ¨Ø´Ø£ÙĨ": 4036,
      "Ġhalf": 4037,
      "ØµØ§ÙĦ": 4038,
      "ĠÙĥÙĦÙħØ©": 4039,
      "ÙĪÙĦØ§Øª": 4040,
      "ĠØ¬ÙĬØ¯Ø§": 4041,
      "ĠÙĬÙĤØ¹": 4042,
      "ĠØ§ÙĦØ¥ÙĨØ¬": 4043,
      "ĠGr": 4044,
      "These": 4045,
      "Ø¯Ø§Ùģ": 4046,
      "ĠØ§ÙĦÙĥØªØ§Ø¨": 4047,
      "ĠØ§ÙĦÙħÙĪØ³ÙĬÙĤÙī": 4048,
      "Ġcrowd": 4049,
      "eor": 4050,
      "ÙĪØº": 4051,
      "ĠÙĥØ±ÙĬ": 4052,
      "Ġonce": 4053,
      "Ġspace": 4054,
      "ĠØ§ÙĦØ£ØŃÙħØ±": 4055,
      "Ø¨ÙĬÙĨ": 4056,
      "Ø²Ùħ": 4057,
      "ĠÙħÙĨÙĩØ§": 4058,
      "ÙĨÙĥ": 4059,
      "ØªÙĤ": 4060,
      "ĠØ°Ùĩ": 4061,
      "Ø±ÙĬØ¹": 4062,
      "Ġstick": 4063,
      "ĠØ§ÙĦÙĥØ±Ø©": 4064,
      "ĠØ²ÙģØ§Ùģ": 4065,
      "ana": 4066,
      "Ġbegan": 4067,
      "ĠÙĦØ¯ÙĬÙĩØ§": 4068,
      "ĠÙħÙĨØ§": 4069,
      "ĠBe": 4070,
      "Ġchall": 4071,
      "Ġheld": 4072,
      "Ø§Ø¦Ø²": 4073,
      "ĠRe": 4074,
      "reat": 4075,
      "ÙĪØ±Ø¬": 4076,
      "Ġworry": 4077,
      "ĠØªÙĨØ¸Ø±": 4078,
      "ĠØ§ÙĦØ¨ÙĬØ¶Ø§Ø¡": 4079,
      "Ġmetal": 4080,
      "Ø³ÙĬØ§Ø±Ø©": 4081,
      "ĠØ§ÙĦØ±Ø¦ÙĬØ³ÙĬØ©": 4082,
      "Ġcolorful": 4083,
      "ĠØ£Ø±Ø¨Ø¹Ø©": 4084,
      "ĠØ§ÙĦØŃØ¨": 4085,
      "for": 4086,
      "ĠÙĥÙĪÙĦ": 4087,
      "ÙģÙĬÙĨØ©": 4088,
      "Ġtruck": 4089,
      "ÙĥØ±Ùĩ": 4090,
      "Ġkey": 4091,
      "ĠØ§ÙĦØŃØ¯ÙĬØ«": 4092,
      "ĠØ§ÙĦØ±Ø¬Ø§ÙĦ": 4093,
      "Ġincre": 4094,
      "rod": 4095,
      "ĠÙģØ¹ÙĦØª": 4096,
      "rit": 4097,
      "ĠØ§ÙĤØª": 4098,
      "Ø±Ø²": 4099,
      "ĠØªÙĪÙħ": 4100,
      "ĠÙĥØ§Ùħ": 4101,
      "Ġsitu": 4102,
      "Ø§ØªÙĬ": 4103,
      "umb": 4104,
      "ĠÙĨÙģ": 4105,
      "Ġbuilt": 4106,
      "ĠÙĬÙĤÙĪÙħ": 4107,
      "Ġchairs": 4108,
      "Ġalone": 4109,
      "Ø§ØŃÙĨØ©": 4110,
      "Ġiss": 4111,
      "ĠØ¢Ø³Ùģ": 4112,
      "Ġstone": 4113,
      "Ġic": 4114,
      "used": 4115,
      "Ġhate": 4116,
      "Ø§ÙĦØ´": 4117,
      "Ġbased": 4118,
      "ĠØ§ÙĦØ±ÙĪ": 4119,
      "ama": 4120,
      "ĠÙħÙħØ§": 4121,
      "raft": 4122,
      "Ġcomputer": 4123,
      "ĠÙĩÙĨ": 4124,
      "ilar": 4125,
      "Ġstudents": 4126,
      "Ġavailable": 4127,
      "ters": 4128,
      "ĠÙĦØŃØ¸Ø©": 4129,
      "ĠØµÙģØ±Ø§Ø¡": 4130,
      "Ġvers": 4131,
      "itive": 4132,
      "ising": 4133,
      "ÙĪØ§Ø¯": 4134,
      "ĠØ§ÙĦØ°ÙĩØ§Ø¨": 4135,
      "ĠØ§ÙĦÙĦÙĪÙĨ": 4136,
      "ĠØ´Ø¹Ø§Ø±": 4137,
      "Ø²ØŃ": 4138,
      "ÙĪØ¶Ø¹": 4139,
      "Ø±Ø§ØªÙĬØ¬": 4140,
      "ÙĪØ§ØŃ": 4141,
      "Ġjour": 4142,
      "Ġjump": 4143,
      "ĠØ§ÙĦØ±ØºÙħ": 4144,
      "ĠØ§ÙĦØªØ³": 4145,
      "ization": 4146,
      "Ø±Ø¨ÙĬ": 4147,
      "Ø³ÙħØ§Ø¡": 4148,
      "Ġcrit": 4149,
      "ĠØ§ÙĦØªØ§Ø±ÙĬØ®": 4150,
      "Ġtrue": 4151,
      "Ø¯ÙĪØ¯": 4152,
      "ĠØ¯Ø§": 4153,
      "ĠØ§ÙĦØ´Ø±Ø·Ø©": 4154,
      "Ġhit": 4155,
      "Ġ200": 4156,
      "ĠÙħÙĦØ§Ø¨Ø³": 4157,
      "Ġaccess": 4158,
      "ĠÙģØªØ±Ø©": 4159,
      "lets": 4160,
      "ĠRo": 4161,
      "ped": 4162,
      "Ġtaken": 4163,
      "Ġmatch": 4164,
      "ĠØŃÙĦ": 4165,
      "ĠØ§ÙĦØ¬ÙĨÙĪØ¨": 4166,
      "ude": 4167,
      "Ġworked": 4168,
      "ĠÙħØ¬Ø±Ø¯": 4169,
      "ĠØ¨Ø³Ø±": 4170,
      "Ġphotos": 4171,
      "ĠÙĪØ¹Ø§Ø¡": 4172,
      "Ø£ØŃ": 4173,
      "Ø§ÙĦØ¬": 4174,
      "itary": 4175,
      "ĠÙĪØ§Ø¶": 4176,
      "Ġtur": 4177,
      "Ġcand": 4178,
      "nam": 4179,
      "ĠÙĪÙģÙĬ": 4180,
      "Ġrestaurant": 4181,
      "ĠÙĬØªØŃØ¯Ø«": 4182,
      "ĠØ§ÙĦØŃÙħØ±Ø§Ø¡": 4183,
      "Ġreceived": 4184,
      "Ġprofess": 4185,
      "Ġrad": 4186,
      "Ġinformation": 4187,
      "Ø´Ø§Ø¨": 4188,
      "Ġdi": 4189,
      "ÙĦØ§ÙĤØ©": 4190,
      "Ġsocial": 4191,
      "Ġempty": 4192,
      "ults": 4193,
      "Ø¹ÙĦÙĤ": 4194,
      "Ġincluded": 4195,
      "Ġclub": 4196,
      "ÙĨÙĩ": 4197,
      "Ø¨ÙĨÙī": 4198,
      "Ø´Ø§": 4199,
      "ÙħÙĬØª": 4200,
      "Ø¹ÙĥØ©": 4201,
      "Ġlit": 4202,
      "Ø¶Ø§Ùģ": 4203,
      "ÙĥØ§ÙĦ": 4204,
      "ĠØºØ±ÙĪØ¨": 4205,
      "ada": 4206,
      "Ġshot": 4207,
      "ption": 4208,
      "Ġdest": 4209,
      "Ġrese": 4210,
      "ØªÙħÙĥÙĨ": 4211,
      "oke": 4212,
      "ĠÙħØ±Ø§": 4213,
      "ĠÙĬØ¹ÙĨÙĬ": 4214,
      "Ġcurrently": 4215,
      "ĠÙĦØµ": 4216,
      "some": 4217,
      "ÙĨÙĬØ§": 4218,
      "ara": 4219,
      "Ø§Ø´Ø±Ø©": 4220,
      "Ø´Ø¬Ø§Ø±": 4221,
      "Ø§ÙĨÙĪÙĬØ©": 4222,
      "ertain": 4223,
      "cy": 4224,
      "right": 4225,
      "ĠØ¹Ø§Ø¯": 4226,
      "Ø±ÙĬØ¨Ø©": 4227,
      "Ġsite": 4228,
      "Ġamer": 4229,
      "icy": 4230,
      "Ġbit": 4231,
      "ĠØµÙĨØ¯ÙĪÙĤ": 4232,
      "Ø®ÙĪØ±": 4233,
      "Ġarch": 4234,
      "Ġsurrounded": 4235,
      "ĠØ¨Ø±ØªÙĤ": 4236,
      "Ø¨ÙĬØ¶Ø§Ø¡": 4237,
      "ĠØ§ÙĦÙĨØ§Ø±": 4238,
      "ĠÙĬÙĥ": 4239,
      "ails": 4240,
      "ÙĪÙĤØ¯": 4241,
      "Ġcompet": 4242,
      "ÙĩØ§Ø±": 4243,
      "ĠØ¥Ø´": 4244,
      "ĠÙĨÙģØ³Ùĥ": 4245,
      "ĠØ¨Ø§ÙĦÙĨØ³Ø¨Ø©": 4246,
      "did": 4247,
      "Ø¨Ø§Ø±Ø§Ø©": 4248,
      "Ġcult": 4249,
      "Ġfut": 4250,
      "Ø¸Ø§ÙĩØ±": 4251,
      "Ġshit": 4252,
      "ĠØ·Ø¨": 4253,
      "Ø¯Ø¯Ø§": 4254,
      "ĠPr": 4255,
      "Ġpay": 4256,
      "Ġmedia": 4257,
      "ÙĪØ«": 4258,
      "Ġformer": 4259,
      "Ġseat": 4260,
      "ustral": 4261,
      "ĠØ§ÙĦØ¹Ùħ": 4262,
      "ĠØ§ÙĦÙħÙĬØ§Ùĩ": 4263,
      "Ø²ÙĦØ¬": 4264,
      "ĠØ§ÙĦØ£ØµÙĦ": 4265,
      "ĠÙħØŃÙħ": 4266,
      "ØŃÙĤ": 4267,
      "ĠÙģØ¹": 4268,
      "Ġhar": 4269,
      "ĠØ¥ØŃ": 4270,
      "ĠØ§ÙĦÙħØ±ÙĥØ²": 4271,
      "Ø²ÙĩØ§Ø±": 4272,
      "ĠØ§ÙĬØ¶Ø§": 4273,
      "Ġpretty": 4274,
      "Ø§Ø²ÙĦ": 4275,
      "Ø£ÙĥÙĬØ¯": 4276,
      "Ġaff": 4277,
      "Ġbirth": 4278,
      ",\"\"": 4279,
      "ĠÙħØ§Øª": 4280,
      "Ġrepres": 4281,
      "Ø¹Ùĩ": 4282,
      "ĠÙħÙĨØªØµÙģ": 4283,
      "ĠÙĦÙĦØ§": 4284,
      "ĠØ¬ÙħÙĬÙĦ": 4285,
      "ole": 4286,
      "oint": 4287,
      "ĠØ§ÙĦØ§ÙĨØªØ±ÙĨØª": 4288,
      "Ø´Ø¯": 4289,
      "ified": 4290,
      "Ġsingle": 4291,
      "ĠØ§ÙĦØ®ÙĬ": 4292,
      "Ø§ÙħÙĬØ©": 4293,
      "ĠØµÙĪØª": 4294,
      "ĠØ¹ÙĨÙĩ": 4295,
      "ÙģÙĬÙĨ": 4296,
      "ĠØ£ÙĪÙĩ": 4297,
      "Ġprop": 4298,
      "ÙĬØ±Ø§Øª": 4299,
      "ĠÙĪØ§ÙĦÙĨ": 4300,
      "Ġarri": 4301,
      "ban": 4302,
      "ĠØ³ÙĦØ³ÙĦØ©": 4303,
      "ĠÙĪÙĦØ§ÙĬØ©": 4304,
      "Ġsmiling": 4305,
      "ĠØŃØ§ÙĦØ©": 4306,
      "airs": 4307,
      "ĠØ£Ø¹ÙĦÙī": 4308,
      "men": 4309,
      "ĠÙĬØº": 4310,
      "ĠCity": 4311,
      "Ġvi": 4312,
      "Ġsuper": 4313,
      "ĠQ": 4314,
      "Ġhi": 4315,
      "ls": 4316,
      "ÙħÙĪÙĨ": 4317,
      "ĠØ´Ø¹": 4318,
      "gest": 4319,
      "ett": 4320,
      "ests": 4321,
      "Ø³Ø·": 4322,
      "Ġamong": 4323,
      "bers": 4324,
      "Ġcab": 4325,
      "Ø³ÙĬÙĥ": 4326,
      "Ġletter": 4327,
      "ĠÙģÙĬÙħØ§": 4328,
      "ØªÙĨ": 4329,
      "ĠØ¥ÙĦØ§": 4330,
      "ume": 4331,
      "ĠØ§ÙĦØ²Ø±ÙĤØ§Ø¡": 4332,
      "ĠØ¹ÙĦÙĬÙĨØ§": 4333,
      "ength": 4334,
      "ÙĬØ¯Ø©": 4335,
      "Ø³Ø§Ø¨": 4336,
      "Ġclot": 4337,
      "ĠÙĦØ¹": 4338,
      "ĠØ¬ÙĦ": 4339,
      "aim": 4340,
      "Ġhope": 4341,
      "ĠØ³Ø·ØŃ": 4342,
      "ĠØ³ÙĬÙĨ": 4343,
      "ccer": 4344,
      "Ġmic": 4345,
      "Ġrefer": 4346,
      "ÙħØ§ÙĥÙĨ": 4347,
      "ĠØªÙĤØ±ÙĬØ¨Ø§": 4348,
      "een": 4349,
      "ĠÙħØ¸": 4350,
      "ÙĥØªÙĪØ±": 4351,
      "ĠÙħØŃØ·Ø©": 4352,
      "Ø¯Ø§Ø±Ø³": 4353,
      "ĠÙĨØ¸Ø§Ùħ": 4354,
      "Ġgrad": 4355,
      "ey": 4356,
      "ĠØ£ÙĦÙħ": 4357,
      "Ġdev": 4358,
      "Ġgotta": 4359,
      "ĠØ¥ÙĦÙĩÙĬ": 4360,
      "Ø°Ø©": 4361,
      "Ġpath": 4362,
      "ĠØªØŃØªÙĪÙĬ": 4363,
      "Ġlate": 4364,
      "ÙĪÙĬÙĪØ±Ùĥ": 4365,
      "ĠØªØµÙĪÙĬØ±": 4366,
      "ĠØ§ÙĦØ¬Ø²Ø¡": 4367,
      "Ø²ÙĪÙĨ": 4368,
      "Ġattack": 4369,
      "ĠÙĬØ³Ùħ": 4370,
      "who": 4371,
      "ged": 4372,
      "ĠØ§ÙĦØµÙĪØ±": 4373,
      "Ġsurf": 4374,
      "orrow": 4375,
      "Ġkids": 4376,
      "soci": 4377,
      "ĠØ§ÙĦØ·Ø§ÙĪÙĦØ©": 4378,
      "ØµÙĦØª": 4379,
      "ĠØ£ØµØ¯ÙĤ": 4380,
      "ĠØ£Ø´Ø®Ø§Øµ": 4381,
      "Ġless": 4382,
      "ended": 4383,
      "ĠUnited": 4384,
      "ĠØ¨Ø¯ÙĪÙĨ": 4385,
      "Ġmember": 4386,
      "Ġfa": 4387,
      "ĠØ´Ø§Ø¨Ø©": 4388,
      "ĠØ§ÙĦØ¹ÙĨ": 4389,
      "ĠAt": 4390,
      "ĠÙģØ³ØªØ§ÙĨ": 4391,
      "Ġhistory": 4392,
      "Ġice": 4393,
      "ÙĦÙģØ²ÙĬ": 4394,
      "Ø¹ÙĬØ¯Ø©": 4395,
      "ĠØ¥Øµ": 4396,
      "ĠÙĦÙħØ¯Ø©": 4397,
      "Ġtrust": 4398,
      "ĠØ§ÙĦÙĬØ§Ø¨": 4399,
      "Ø¶ÙĬ": 4400,
      "ÙģÙĬÙĦ": 4401,
      "Ġappro": 4402,
      "ĠÙĦÙĦÙĨ": 4403,
      "ÙģØªØ©": 4404,
      "ĠØ¯ÙĪÙĦ": 4405,
      "ĠØ§ÙĦØ¬ÙħÙĬØ¹": 4406,
      "ule": 4407,
      "ÙħÙĪØ°": 4408,
      "Ġhealth": 4409,
      "ĠØ§ÙĨÙĥ": 4410,
      "Ġstarted": 4411,
      "Ġca": 4412,
      "ÙĨØ³ÙĬØ©": 4413,
      "ØªÙĤØ¹": 4414,
      "ĠØ§ÙĦÙħÙģØª": 4415,
      "Ġlevel": 4416,
      "ĠØ¨Ø£ÙĨÙĩ": 4417,
      "anch": 4418,
      "ĠEnglish": 4419,
      "After": 4420,
      "ĠØ§ÙĦØ¬Ùħ": 4421,
      "Ġ10": 4422,
      "ĠØ£ÙĤÙĦ": 4423,
      "Ġriding": 4424,
      "Ġopportun": 4425,
      "Ġ9": 4426,
      "ĠRiver": 4427,
      "ĠÙĪØ§Ø³": 4428,
      "Ġpriv": 4429,
      "ĠÙĩÙĥØ°Ø§": 4430,
      "ĠØªØªØŃØ¯Ø«": 4431,
      "Ġmach": 4432,
      "ced": 4433,
      "ÙĪØ¶ÙĪØ¹": 4434,
      "Ġfur": 4435,
      "ĠØ£ÙĦØ§": 4436,
      "Ġlink": 4437,
      "zy": 4438,
      "band": 4439,
      "Ø°Ø§Ø¡": 4440,
      "Ġplants": 4441,
      "Ø¹ÙĨØ¯": 4442,
      "ĠØ¨Ø¹ÙĬØ¯": 4443,
      "ĠØªÙĨØª": 4444,
      "Ø´ÙĦ": 4445,
      "Ġquick": 4446,
      "ĠÙĬÙĤÙģØ§ÙĨ": 4447,
      "ford": 4448,
      "Ġwasnt": 4449,
      "iles": 4450,
      "ĠHigh": 4451,
      "Ø¯Ø±Ø§ÙĨ": 4452,
      "ÙĪØ±ÙĬØ§": 4453,
      "Ġcake": 4454,
      "ĠØ£ÙĤÙĪÙĦ": 4455,
      "Ġflying": 4456,
      "Ġins": 4457,
      "ĠØ¨ØŃÙĤ": 4458,
      "Ġpiece": 4459,
      "lo": 4460,
      "ÙĩØ±Ø¬Ø§ÙĨ": 4461,
      "Ø±ÙĤÙĬØ©": 4462,
      "iod": 4463,
      "ĠÙħØ§ÙĦ": 4464,
      "ĠØªÙĪÙĤÙģ": 4465,
      "ĠØŃÙģÙĦ": 4466,
      "Ġ7": 4467,
      "Ġans": 4468,
      "ĠØ¥ÙĬ": 4469,
      "ĠÙħØ¹Ø±ÙĪ": 4470,
      "Ø¬Ø§Ø±ÙĬØ©": 4471,
      "ĠØ§ÙĦØªØ§ÙĦÙĬ": 4472,
      "Ġfocus": 4473,
      "attle": 4474,
      "ĠPh": 4475,
      "anced": 4476,
      "Ġauthor": 4477,
      "ĠÙģØŃØ³Ø¨": 4478,
      "Ġfest": 4479,
      "ĠÙĦÙĨØ§": 4480,
      "ĠØ§ÙĦÙĦØ¹Ø¨Ø©": 4481,
      "Ġguess": 4482,
      "Ġfeatures": 4483,
      "aps": 4484,
      "ĠØªØ§": 4485,
      "omin": 4486,
      "ĠØ¨Ø§ÙĦÙģØ¹ÙĦ": 4487,
      "Ġeat": 4488,
      "Ġfail": 4489,
      "Ø´Ø©": 4490,
      "ĠØ¬ÙĨÙĪØ¨": 4491,
      "Ø§Ø¤": 4492,
      "ĠØªØªØŃ": 4493,
      "Ġuntil": 4494,
      "ĠØ¹ÙĤ": 4495,
      "Ġgave": 4496,
      "ĠØ§ÙĦØ¢Ø®Ø±ÙĬÙĨ": 4497,
      "ÙĪØ§Ø¨": 4498,
      "Ġpress": 4499,
      "Ø§Ø¦Ùħ": 4500,
      "ĠØ§ÙĦØ«Ø§ÙĦ": 4501,
      "Ġglasses": 4502,
      "Ġrail": 4503,
      "Ġachieve": 4504,
      "Ġdesk": 4505,
      "Ġcomplete": 4506,
      "book": 4507,
      "ĠØ¨Ø§Ø¨": 4508,
      "ĠØªØ§Ø±ÙĬØ®": 4509,
      "Ġorder": 4510,
      "Ġreading": 4511,
      "fect": 4512,
      "Ġgrey": 4513,
      "Ġimages": 4514,
      "ĠØ§ÙĦØ«ÙĦØ§Ø«": 4515,
      "Ġbathroom": 4516,
      "ald": 4517,
      "ĠØ´Ø®ØµÙĬØ©": 4518,
      "gl": 4519,
      "ĠØªØ±ÙĬ": 4520,
      "uce": 4521,
      "Ø³Ø§Ùħ": 4522,
      "Ø¨ÙĥØ©": 4523,
      "Ġpeace": 4524,
      "Ġmatter": 4525,
      "ring": 4526,
      "Ġinternational": 4527,
      "Ġhous": 4528,
      "ĠHowever": 4529,
      "ĠÙħÙĬØª": 4530,
      "Ġbrick": 4531,
      "Ġlanguage": 4532,
      "Ġrepl": 4533,
      "ĠØ§ÙĦØªØ´": 4534,
      "ÙĦÙĤÙī": 4535,
      "ville": 4536,
      "bert": 4537,
      "ĠØ¹ÙħÙĦÙĬØ©": 4538,
      "Ġmeeting": 4539,
      "ÙĪØ¹Ø§": 4540,
      "Ġok": 4541,
      "Ġbas": 4542,
      "Ø£ÙĨÙĩ": 4543,
      "Ø¬Ø§Ùĩ": 4544,
      "Ø®Ø±Ø©": 4545,
      "ĠØ£Ø´Ø¹Ø±": 4546,
      "ges": 4547,
      "Ġhuh": 4548,
      "ÙĪØ±Ø§ÙĤ": 4549,
      "iff": 4550,
      "ĠØ§ÙĦÙĤØµ": 4551,
      "ĠÙĬØ²Ø§ÙĦ": 4552,
      "Ġgroom": 4553,
      "Ġachie": 4554,
      "Ġquestion": 4555,
      "ĠØŃØ¯ÙĬØ«": 4556,
      "Ġsilver": 4557,
      "ĠÙħÙħØª": 4558,
      "ĠÙĤÙĦØ¨": 4559,
      "Ø¶ÙĬØ©": 4560,
      "ĠØ£Ø¹Ø·": 4561,
      "bl": 4562,
      "ØĽ": 4563,
      "olf": 4564,
      "ĠØ§ÙĦÙĨÙĩØ§ÙĬØ©": 4565,
      "Ġswimming": 4566,
      "ique": 4567,
      "ĠØ§ÙĦØ´Ø±ÙĥØ©": 4568,
      "ĠØ¨Ø±ÙĬ": 4569,
      "ĠØ¬Ùĩ": 4570,
      "ØªÙĬØ¬Ø©": 4571,
      "itor": 4572,
      "Ø¬ÙĬÙĨ": 4573,
      "ØºØ¨": 4574,
      "mp": 4575,
      "ĠCon": 4576,
      "ÙĬÙĪØ±": 4577,
      "ĠÙĬØ±ÙĬØ¯": 4578,
      "lex": 4579,
      "ĠNorth": 4580,
      "Ø£ÙĦ": 4581,
      "ĠØ§ÙĦÙħÙĥ": 4582,
      "Ġbring": 4583,
      "Ġhill": 4584,
      "Ġyouve": 4585,
      "ĠØ³Ø§ÙĨØª": 4586,
      "Ø³ÙĬØ¯": 4587,
      "ĠØ§ÙĦØ³Ø§Ø¨ÙĤ": 4588,
      "Ø¨Ø§Ø³": 4589,
      "Ġinfl": 4590,
      "ĠØ¨Ø§Ø³ØªØ®Ø¯Ø§Ùħ": 4591,
      "Ø¸Ø±ÙĬ": 4592,
      "uth": 4593,
      "ĠØªÙĤØ¯Ùħ": 4594,
      "ĠØ¬Ø§ÙĦØ³Ø©": 4595,
      "vision": 4596,
      "Ø¹Ùī": 4597,
      "ĠØ§ÙĦØ§Ø³Ùħ": 4598,
      "Ġreview": 4599,
      "Ġnon": 4600,
      "ĠØ¥ÙĦÙĬÙĩ": 4601,
      "ĠØ®Ø§Øµ": 4602,
      "âĻ": 4603,
      "ĠØ§ÙĦØ£Ø´Ø®Ø§Øµ": 4604,
      "Ġdream": 4605,
      "ĠÙĥÙĬ": 4606,
      "olution": 4607,
      "avy": 4608,
      "ÙĦÙĬÙģ": 4609,
      "acy": 4610,
      "urity": 4611,
      "Ġindust": 4612,
      "ĠÙĬÙģØ¹ÙĦ": 4613,
      "ury": 4614,
      "ĠØ§ÙĦÙħØ¨Ø§Ø±Ø§Ø©": 4615,
      "ØµØ§Ø¯": 4616,
      "ĠØ§ÙĦÙĨØµ": 4617,
      "nal": 4618,
      "ĠØ§ÙĦØªØ¯": 4619,
      "idence": 4620,
      "Ø§Ø¦Ø²Ø©": 4621,
      "Ġbright": 4622,
      "sidered": 4623,
      "ĠØ¨Ø±ÙĪ": 4624,
      "conom": 4625,
      "ouble": 4626,
      "ĠØ¬Ø¨ÙĦ": 4627,
      "Ø³ÙĦÙĪØ¨": 4628,
      "Ġwalls": 4629,
      "ĠØªÙĪØ¶ÙĬØŃ": 4630,
      "ÙħØ§Ùĥ": 4631,
      "Ġmer": 4632,
      "Ø·Ø§Øª": 4633,
      "Ø²Ø§Ùħ": 4634,
      "Ġusually": 4635,
      "ĠØ¯Ø±Ø§Ø¬Ø©": 4636,
      "ĠØ§Ùģ": 4637,
      "ĠØ§ÙĦØŃÙĤÙĬÙĤØ©": 4638,
      "âĻª": 4639,
      "ĠØ£ØµØ¨ØŃØª": 4640,
      "ĠØ¨Ø³Ø±Ø¹Ø©": 4641,
      "Ø±ÙĬØ§": 4642,
      "Ġsurv": 4643,
      "ĠÙĥØ±Ø³ÙĬ": 4644,
      "Ø§ÙĦÙĤ": 4645,
      "ĠGerman": 4646,
      "Ġconsidered": 4647,
      "Ġcourt": 4648,
      "like": 4649,
      "ĠCal": 4650,
      "ague": 4651,
      "ĠTom": 4652,
      "Ġrights": 4653,
      "Ø³Ø±Ø¹": 4654,
      "Two": 4655,
      "ĠÙĦØ·ÙĬÙģ": 4656,
      "Ġfuture": 4657,
      "ĠÙĨØ´Ø±": 4658,
      "ĠØ£Ø®Ø°": 4659,
      "Ġreleased": 4660,
      "ĠØ´Ø§Ø¨": 4661,
      "Ġhimself": 4662,
      "Ġwhole": 4663,
      "Ġking": 4664,
      "ĠÙĪØ±Ø¯ÙĬØ©": 4665,
      "reek": 4666,
      "mon": 4667,
      "Ø³ÙĦØ³ÙĦ": 4668,
      "Ġinvest": 4669,
      "Ø§ÙĨÙĪ": 4670,
      "ĠØ§ÙĦØŃÙĤ": 4671,
      "Ġhall": 4672,
      "ÙĪÙĨØº": 4673,
      "ĠYork": 4674,
      "ĠØ§ÙĦÙĪÙĦØ§ÙĬØ§Øª": 4675,
      "hod": 4676,
      "Ġcorn": 4677,
      "ØµÙĪØ±": 4678,
      "Ø´Ø¹Ø±": 4679,
      "Ø±ÙĬÙĥØ©": 4680,
      "light": 4681,
      "Ø§ÙĦØ¯": 4682,
      "Ġknew": 4683,
      "ØŃÙĦ": 4684,
      "ĠÙĤØ§Ø¦ÙħØ©": 4685,
      "Ġaud": 4686,
      "Ø¨Ø±Ø©": 4687,
      "Ġcoun": 4688,
      "ĠAmerican": 4689,
      "more": 4690,
      "ĠÙĪÙĬÙĨ": 4691,
      "ÙĬØªÙĩØ§": 4692,
      "Ġactually": 4693,
      "ĠÙĦÙĦØ¥": 4694,
      "iere": 4695,
      "people": 4696,
      "Ġround": 4697,
      "ĠÙĦÙĦÙĤ": 4698,
      "Ġscreen": 4699,
      "ĠÙĬÙģØ¶ÙĦ": 4700,
      "ĠSaint": 4701,
      "Ġclean": 4702,
      "tle": 4703,
      "ÙĪÙħØ¹": 4704,
      "ĠØ§ÙĦØ¯Ùħ": 4705,
      "ĠØªÙĬ": 4706,
      "omb": 4707,
      "Ġdie": 4708,
      "Ġappl": 4709,
      "Ø¨Ø§ÙĨ": 4710,
      "ĠØ¨Ø£Ø³": 4711,
      "Â«": 4712,
      "Ø¬Ø¹": 4713,
      "ĠÙħÙĨÙĬ": 4714,
      "ĠØ§ÙĦØ¯Ø§Ø®ÙĦ": 4715,
      "ĠØ§ÙĦÙĨØ³Ø§Ø¡": 4716,
      "Ġneck": 4717,
      "ĠÙħÙĨØ¸Ø±": 4718,
      "ĠThese": 4719,
      "ÙĬØªÙĩ": 4720,
      "Ø§ÙģØ¸": 4721,
      "Ġcars": 4722,
      "ĠØ§ÙĦØ«Ø§ÙĨÙĬØ©": 4723,
      "Ġstrateg": 4724,
      "Ġengine": 4725,
      "Ġhanging": 4726,
      "ĠØ¨ÙĨÙģØ³": 4727,
      "ÙĪØ¯ÙĬ": 4728,
      "Ġeasy": 4729,
      "ØŃØ§Ø¡": 4730,
      "Ġthough": 4731,
      "Ġthinking": 4732,
      "Ġgone": 4733,
      "ĠSouth": 4734,
      "ĠØ§ÙĦÙĥØ§ÙħÙĬØ±Ø§": 4735,
      "Ø±ÙĬÙĥÙĬØ©": 4736,
      "ĠØ¨Ø¥ÙħÙĥØ§ÙĨ": 4737,
      "Ġdevelopment": 4738,
      "ĠØ±Ø§": 4739,
      "ĠØ·Ø¨ÙĤ": 4740,
      "ØªÙĬØ§Øª": 4741,
      "ĠØ§ÙĦØŃØ¯ÙĬØ¯": 4742,
      "Ġseason": 4743,
      "rew": 4744,
      "Ġcell": 4745,
      "utes": 4746,
      "ending": 4747,
      "ĠÙħØ´ÙĥÙĦØ©": 4748,
      "Ø¬Ø±Ø§Ø¡": 4749,
      "ØªØ¹Ø±Ùģ": 4750,
      "uk": 4751,
      "Ġdig": 4752,
      "Ġinvol": 4753,
      "Ġlim": 4754,
      "Ġblood": 4755,
      "ental": 4756,
      "ÙħÙĨØ²ÙĦ": 4757,
      "ĠØ§ÙĦØ³ÙĬØ¯": 4758,
      "ĠØ¨ØŃÙĬØ±Ø©": 4759,
      "ĠCollege": 4760,
      "Ġfav": 4761,
      "Ø§ØŃÙĦ": 4762,
      "ĠTwo": 4763,
      "gypt": 4764,
      "ead": 4765,
      "But": 4766,
      "ĠØªØ¨Ø¯ÙĪ": 4767,
      "Ø§Ø³ÙĪØ¨": 4768,
      "ĠØŃØµÙĦØª": 4769,
      "Ø±Ø¹Ø©": 4770,
      "ises": 4771,
      "Ø§Ø¦Ø¨": 4772,
      "Ġperiod": 4773,
      "St": 4774,
      "Ø¹Ø±Ùģ": 4775,
      "read": 4776,
      "Ø«ÙĦØ©": 4777,
      "ĠØ§ÙĦØ¨Ø·": 4778,
      "Ġdiff": 4779,
      "ÙĤÙĪÙħ": 4780,
      "Ġsour": 4781,
      "ouncil": 4782,
      "Ġrepresent": 4783,
      "Ø¯ÙģØ¹": 4784,
      "Ġmir": 4785,
      "ÙĪØ®": 4786,
      "Ø¯Ø±Ø¬": 4787,
      "Ø§Ø±Ø³": 4788,
      "ĠØ³Ø§Ø¹Ø©": 4789,
      "ulation": 4790,
      "ĠWill": 4791,
      "ÙħØ¨Ø±": 4792,
      "ĠØ§ÙĦÙħØ²ÙĬØ¯": 4793,
      "itish": 4794,
      "ĠÙĪØ·": 4795,
      "Ġfem": 4796,
      "Ġring": 4797,
      "Ġalmost": 4798,
      "ĠØ§ÙĦØ±Ø³Ùħ": 4799,
      "Ġten": 4800,
      "ĠØ´ÙħØ§ÙĦ": 4801,
      "ĠØ§ÙĦØŃØ§Ø¦Ø·": 4802,
      "Ġcomes": 4803,
      "ĠØ§ÙĦØ£Ø®ÙĬØ±Ø©": 4804,
      "ĠØ§ÙĦÙĢ": 4805,
      "Ø¯ÙĬÙĥ": 4806,
      "ÙĪØ§Ø¬Ùĩ": 4807,
      "ĠÙħØ®Ø·": 4808,
      "ĠÙħØ¹Ùĩ": 4809,
      "ĠØ§ÙĦØ§Ùģ": 4810,
      "ĠØµØ¯ÙĬÙĤ": 4811,
      "Ø¹ÙĦÙĪÙħØ§Øª": 4812,
      "ĠOr": 4813,
      "hou": 4814,
      "ĠØ§ÙĦÙĦØºØ©": 4815,
      "ØŃÙĬÙħ": 4816,
      "Ġwrote": 4817,
      "ĠØ±Ø§Ø¦Ø¹Ø©": 4818,
      "ÙĪÙĨØ§Øª": 4819,
      "Ø±Ø§Ø¡Ø©": 4820,
      "ensive": 4821,
      "ĠÙĤØ§Ø±Ø¨": 4822,
      "ends": 4823,
      "Ġplayers": 4824,
      "Ġpainted": 4825,
      "ÙħÙĩ": 4826,
      "ards": 4827,
      "astic": 4828,
      "All": 4829,
      "ĠÙĪØ§Ø¬": 4830,
      "ĠÙĪÙĥØ§ÙĨ": 4831,
      "ĠÙħÙĨÙĥ": 4832,
      "Ġnor": 4833,
      "Ġboys": 4834,
      "Ø³ÙĥØ±": 4835,
      "20": 4836,
      "ĠØ§ÙĦØ§ÙĤØª": 4837,
      "ĠØ¹Ø§Ø¦ÙĦØ©": 4838,
      "Ø£Ø±ÙĬØ¯": 4839,
      "Ġrelations": 4840,
      "Ġstatue": 4841,
      "ays": 4842,
      "ĠØ³ØŃ": 4843,
      "ÙħØ§Ø¹": 4844,
      "sequ": 4845,
      "ĠØ§ÙĦØŃØ±": 4846,
      "Ø¨ÙĬØ±Ø©": 4847,
      "ĠÙĪØ¶": 4848,
      "ĠØ§ÙĦÙħØ±Ø§": 4849,
      "ĠØ·ÙĦØ¨": 4850,
      "Ġsoccer": 4851,
      "ĠØ§ÙĦÙĦÙĬÙĦØ©": 4852,
      "Ø¤ÙĦØ§Ø¡": 4853,
      "ploy": 4854,
      "ĠØ§ÙĦØ³ÙĬØ§Ø±Ø§Øª": 4855,
      "Ġwriting": 4856,
      "Ġpolitical": 4857,
      "ĠØ§ÙĦØ«Ø§ÙĨÙĪÙĬØ©": 4858,
      "Ġpan": 4859,
      "ication": 4860,
      "ached": 4861,
      "ĠØ§ÙĥØª": 4862,
      "ĠComm": 4863,
      "ping": 4864,
      "ĠØªØ³ØªØ·ÙĬØ¹": 4865,
      "ÙĪØ§Ùģ": 4866,
      "ĠØ§ÙĦÙħÙĪØ¬": 4867,
      "Ø£ÙĪÙĩ": 4868,
      "Ø«ÙĪØ±": 4869,
      "ĠØ¥Ø¹Ø§Ø¯Ø©": 4870,
      "Ġstore": 4871,
      "Ġprefer": 4872,
      "ocol": 4873,
      "ĠÙģÙĨØ¯ÙĤ": 4874,
      "Ġhy": 4875,
      "Ġserious": 4876,
      "ĠØ¨Ø§ÙĨ": 4877,
      "Ġflo": 4878,
      "Ġpremiere": 4879,
      "'re": 4880,
      "shes": 4881,
      "ĠÙĦÙĥÙĦ": 4882,
      "ĠØ§ÙĦØ¬ÙĦ": 4883,
      "ĠWar": 4884,
      "ĠØ¹Ø§ÙĦÙħ": 4885,
      "ĠØ§ÙĦÙĪØµÙĪÙĦ": 4886,
      "Ġpa": 4887,
      "Ġaction": 4888,
      "ĠØŃÙĬØ§ØªÙĨØ§": 4889,
      "Ġkid": 4890,
      "ÙĤØ·Ø¹": 4891,
      "Ġpair": 4892,
      "ĠØ¨Ø¯Ø£": 4893,
      "Ġinstr": 4894,
      "Ġthird": 4895,
      "Ġarm": 4896,
      "Ġfarm": 4897,
      "ĠØºØ§ÙĦØ¨Ø§": 4898,
      "ĠØ¨Ø§ÙĦØ·Ø¨Ø¹": 4899,
      "Ġprim": 4900,
      "Ġdoc": 4901,
      "Ġclim": 4902,
      "ĠÙĪÙĬÙĦ": 4903,
      "Ø³ØªÙĪÙĨ": 4904,
      "ĠPl": 4905,
      "Ġprinc": 4906,
      "Ġimproved": 4907,
      "Ġcontrol": 4908,
      "ĠØ±ÙĤÙħ": 4909,
      "oph": 4910,
      "Ø«ÙĦØ§Ø«Ø©": 4911,
      "Ø¨ÙĨ": 4912,
      "ĠØªÙĦ": 4913,
      "ĠÙĨØµÙģ": 4914,
      "Ġmouth": 4915,
      "Ġmill": 4916,
      "Ġaccount": 4917,
      "ÙĩØ¯Ø§Ùģ": 4918,
      "Ø§Ø¨ÙĬØ©": 4919,
      "Ġ8": 4920,
      "ØªÙħØ¯": 4921,
      "rying": 4922,
      "ØªØ¹Ø¯": 4923,
      "ÙĪÙĦÙģ": 4924,
      "Ø§Ø¦Ùģ": 4925,
      "ĠØ§ÙĦØ±Ø§": 4926,
      "ĠCent": 4927,
      "Ġsimilar": 4928,
      "Ġtall": 4929,
      "ĠØ§ÙĦÙħÙĪÙĤØ¹": 4930,
      "ĠØ§ÙĦØ¹ÙĦÙħ": 4931,
      "Ø¨Ùĥ": 4932,
      "erous": 4933,
      "Ø¬Ø±ÙĬ": 4934,
      "aly": 4935,
      "Ø®ÙģØ¶": 4936,
      "Ø²ÙĬÙĨ": 4937,
      "ÙĬÙĪÙĨ": 4938,
      "ales": 4939,
      "Ġcareer": 4940,
      "ato": 4941,
      "ĠØ§ÙĦØ£ÙĦØ¨ÙĪÙħ": 4942,
      "Ġgrow": 4943,
      "Ġwindows": 4944,
      "Ġsometimes": 4945,
      "Ġvol": 4946,
      "ample": 4947,
      "ĠØ§ÙĦÙĤØ¯Ø±Ø©": 4948,
      "Ø±ÙĬØŃ": 4949,
      "ĠØ§ÙĦØªØ·": 4950,
      "Ġpublished": 4951,
      "ĠÙĩØ§ØªÙģ": 4952,
      "Ø®ÙĪÙĦ": 4953,
      "Ġonline": 4954,
      "iron": 4955,
      "Ø§Ø·Ø¹": 4956,
      "ires": 4957,
      "Ø§Ø¦ÙĨ": 4958,
      "ĠØ®Ø§ØµØ©": 4959,
      "house": 4960,
      "ĠØ³ÙĬØ§": 4961,
      "iant": 4962,
      "ĠØ§Ø°Ø§": 4963,
      "ĠÙĨØªÙĬØ¬Ø©": 4964,
      "Ø¯Ø§Ø¯": 4965,
      "Ġmist": 4966,
      "ĠØ§ÙĦÙĨÙĩ": 4967,
      "ĠØ§Ø³ØªØ±Ø§ØªÙĬØ¬": 4968,
      "Ġlights": 4969,
      "Ġmur": 4970,
      "ĠØ¬ÙħÙĬØ¹Ø§": 4971,
      "epend": 4972,
      "ĠØ§ÙĦÙħØŃÙĦÙĬØ©": 4973,
      "ha": 4974,
      "your": 4975,
      "Ġer": 4976,
      "ØªØ±Ùĥ": 4977,
      "Ġcust": 4978,
      "Ø¬ÙĪ": 4979,
      "ĠØ§ÙĦÙħØ¯ÙĪÙĨ": 4980,
      "Ġeconom": 4981,
      "une": 4982,
      "Ġnat": 4983,
      "Ġmilitary": 4984,
      "mit": 4985,
      "Ġshut": 4986,
      "uel": 4987,
      "Ġwest": 4988,
      "ÙĪØ§ÙģØ°": 4989,
      "Ġmonths": 4990,
      "ÙħÙĪØ°Ø¬": 4991,
      "Ġvict": 4992,
      "Ġgeneral": 4993,
      "acher": 4994,
      "lor": 4995,
      "Ø§ÙĦÙĨØ§Ø³": 4996,
      "Ø³ÙģØ©": 4997,
      "ĠÙħØ³Ø§Ø¹Ø¯": 4998,
      "ĠØ£Ø¶": 4999,
      "Ġroof": 5000,
      "ĠEd": 5001,
      "....": 5002,
      "Ġrole": 5003,
      "ĠÙĨÙĬÙĪÙĬÙĪØ±Ùĥ": 5004,
      "Ġwide": 5005,
      "ĠÙĪØ§ÙĦØ´": 5006,
      "over": 5007,
      "Ġsister": 5008,
      "stit": 5009,
      "ceed": 5010,
      "ĠØ§ÙĦÙģØ±ÙĤØ©": 5011,
      "Ġwanna": 5012,
      "ĠØ¥Ø°ÙĨ": 5013,
      "Ø¯ÙĬÙĩ": 5014,
      "ĠÙħÙĦÙĪÙĨØ©": 5015,
      "ino": 5016,
      "Ġholds": 5017,
      "Ġvisit": 5018,
      "Ġgames": 5019,
      "mbol": 5020,
      "ÙħØ§Ø³": 5021,
      "ĠÙĨÙĪÙħ": 5022,
      "ĠØ§ÙĦØŃØ§ÙĦÙĬ": 5023,
      "ĠWest": 5024,
      "Ġfestival": 5025,
      "ĠØµØ¨Ø§ØŃ": 5026,
      "Ġsweet": 5027,
      "Ø§Ø³ÙĬ": 5028,
      "ÙĬÙħØ©": 5029,
      "ÙħÙħ": 5030,
      "ĠÙĦØ°Ø§": 5031,
      "Ø§Ø¹Ø§Øª": 5032,
      "ĠÙĪØ§ÙħØ±Ø£Ø©": 5033,
      "ĠØªØ°ÙĩØ¨": 5034,
      "Ġblock": 5035,
      "ospital": 5036,
      "ĠØªØ²Ø§ÙĦ": 5037,
      "ÙĬØªÙĥ": 5038,
      "ÙĦØ¨Ø©": 5039,
      "ĠØ³ØªÙĥÙĪÙĨ": 5040,
      "ĠÙĪØ£Ø³": 5041,
      "Ġasked": 5042,
      "ĠÙħØ±ÙĥÙĪÙĨØ©": 5043,
      "ĠÙĪØ¨ÙĬØ¶Ø§Ø¡": 5044,
      "Ø§Ø·Ùģ": 5045,
      "ĠØ¨ÙĦØ¯Ø©": 5046,
      "ĠØŃÙĬØ§Ø©": 5047,
      "ĠØ§ÙĦØ£ÙĥØ«Ø±": 5048,
      "ĠÙħÙĤØ¹Ø¯": 5049,
      "ĠØªØŃØ¯Ø«": 5050,
      "Ġcra": 5051,
      "ĠØ¨ÙĨØ§": 5052,
      "ĠÙĨÙħØ·": 5053,
      "ĠØ³ÙħØ¹Øª": 5054,
      "ky": 5055,
      "Ø¸ÙĬÙģ": 5056,
      "ĠÙħÙĤØ±": 5057,
      "gar": 5058,
      "ned": 5059,
      "ÙĦÙĬØ¯": 5060,
      "ox": 5061,
      "ĠØ§ÙĦØ£Ø¹ÙĦÙī": 5062,
      "Ġeither": 5063,
      "Ġmult": 5064,
      "ÙĪØ±Ø§Øª": 5065,
      "ĠØ§ÙĦÙĪØ§ÙĤØ¹": 5066,
      "Ġinf": 5067,
      "ØŃØ¯Ø«": 5068,
      "omes": 5069,
      "there": 5070,
      "Ġhus": 5071,
      "Ġexact": 5072,
      "ĠØ§ÙĦÙħØŃØª": 5073,
      "ĠØ£ÙĨÙĬ": 5074,
      "ĠØ£Ø³ÙģÙĦ": 5075,
      "ĠAnd": 5076,
      "ĠÙħØªØ£Ùĥ": 5077,
      "ĠÙĦØ§ØŃÙĤ": 5078,
      "ĠØ¨ÙĩØ°Ùĩ": 5079,
      "ging": 5080,
      "Ø§ÙĦÙĨ": 5081,
      "ĠØ¨Ø§Øª": 5082,
      "ÙĬÙĥÙĬ": 5083,
      "Ġbull": 5084,
      "ĠØªØŃØªØ§Ø¬": 5085,
      "inese": 5086,
      "ÙĦÙĪØŃØ©": 5087,
      "Ġdoctor": 5088,
      "ĠØ·ÙĪØ§ÙĦ": 5089,
      "Ġsymbol": 5090,
      "ÙĬØ¬Ø©": 5091,
      "ĠØ§ÙĦÙħØ¬ÙħÙĪØ¹Ø©": 5092,
      "ØªØµ": 5093,
      "Ġpage": 5094,
      "Ġbottle": 5095,
      "Ch": 5096,
      "ects": 5097,
      "ashion": 5098,
      "ĠØ§ÙĦÙģÙĬØ¯ÙĬÙĪ": 5099,
      "oud": 5100,
      "Ġpen": 5101,
      "Ġareas": 5102,
      "Ø¬ÙĦØ§Øª": 5103,
      "Ġviol": 5104,
      "Ø±Ø³Ùħ": 5105,
      "Ġdance": 5106,
      "ĠØ¬Ø²Ø¡Ø§": 5107,
      "ement": 5108,
      "Ġenv": 5109,
      "Ġcirc": 5110,
      "ÙĬØ§Ø³": 5111,
      "ession": 5112,
      "Ġhost": 5113,
      "ĠØ¬Ø²ÙĬØ±Ø©": 5114,
      "ĠÂ».": 5115,
      "ĠØ§ÙĦÙħØ±Ø£Ø©": 5116,
      "ĠØ§ÙĦØ·ÙĦØ§Ø¨": 5117,
      "estern": 5118,
      "Ġlow": 5119,
      "ĠØ§ÙĦØ£Ø²Ø±ÙĤ": 5120,
      "field": 5121,
      "Ø§Ø¨ÙĦØ©": 5122,
      "Some": 5123,
      "ØªÙĬØ§Ø±": 5124,
      "ÙĥØ¨": 5125,
      "Ġgoal": 5126,
      "Ġmoved": 5127,
      "Ġtower": 5128,
      "ÙĪØ£": 5129,
      "ym": 5130,
      "ÙĥØ¨Ø±": 5131,
      "ĠÙĦØ¨": 5132,
      "ĠÙģØ³Øª": 5133,
      "oral": 5134,
      "Ġinit": 5135,
      "Ġeveryone": 5136,
      "ĠHer": 5137,
      "ĠChrist": 5138,
      "ĠØ§ÙĦÙħÙģ": 5139,
      "Ġneeds": 5140,
      "ĠØ£ØµÙĦ": 5141,
      "ru": 5142,
      "ĠÙĬØ®": 5143,
      "Ø¨ÙĬØ¨": 5144,
      "'ll": 5145,
      "good": 5146,
      "Ġden": 5147,
      "ĠØ®ÙħØ³Ø©": 5148,
      "Ġmad": 5149,
      "Ġled": 5150,
      "ĠØµÙĨØ§": 5151,
      "ĠØ§ÙĦØ·ÙĪØ¨": 5152,
      "Ø§Ø¹Ø¯Ø©": 5153,
      "fers": 5154,
      "mar": 5155,
      "ĠØªØºÙĬÙĬØ±": 5156,
      "ĠÙĪØ£ÙĨØ§": 5157,
      "ĠØŃÙĤÙĬØ¨Ø©": 5158,
      "Ġgiven": 5159,
      "Ġofficial": 5160,
      "Ġmotor": 5161,
      "\"ØŁ": 5162,
      "ØŃÙĬØ©": 5163,
      "ĠØ¯Ø±Ø§": 5164,
      "Ø³ÙħØ¹": 5165,
      "ĠÙĬØ¬ÙĦØ³ÙĪÙĨ": 5166,
      "ording": 5167,
      "Ġpossible": 5168,
      "ades": 5169,
      "ĠÙĪØ§ÙĦØ®": 5170,
      "Ġclouds": 5171,
      "Ġmicro": 5172,
      "ĠØ¬Ø¹ÙĦ": 5173,
      "ĠØ¹ÙĦØ§ÙħØ©": 5174,
      "Ġterm": 5175,
      "Ġhistor": 5176,
      "ĠÙģØ±ÙĤØ©": 5177,
      "Ġdifficult": 5178,
      "Ġluck": 5179,
      "ÙĦÙĩ": 5180,
      "ĠØ§ÙĨØ¸Ø±": 5181,
      "ks": 5182,
      "ĠØ§ÙĦÙħØ®ØªÙĦÙģ": 5183,
      "Ø±ÙĬØª": 5184,
      "ĠØ§ÙĦØŃÙĤÙĬ": 5185,
      "ĠØ§ÙĦØµØºÙĬØ±": 5186,
      "Ġpoin": 5187,
      "Ġcurrent": 5188,
      "iety": 5189,
      "gress": 5190,
      "Ġproper": 5191,
      "Ġgray": 5192,
      "ators": 5193,
      "Ġstuff": 5194,
      "ĠÙħØªÙī": 5195,
      "ĠØ¹Ø¨Ø§Ø±Ø©": 5196,
      "Ġbud": 5197,
      "Ø¯ÙĬØ§Øª": 5198,
      "Ġprob": 5199,
      "ÙĪØ±ÙĨ": 5200,
      "ÙĨØªÙĬØ¬Ø©": 5201,
      "ØŃØ§Ø¯": 5202,
      "Ġconstruction": 5203,
      "Ġstruct": 5204,
      "Ø¬ÙĪØ²": 5205,
      "Ø±ÙĬÙĥØ§": 5206,
      "ĠØ§ÙĦØ·Ø±ÙĬÙĤØ©": 5207,
      "Ġbegin": 5208,
      "ĠØ¨ØŃØ§Ø¬Ø©": 5209,
      "Ġhurt": 5210,
      "ĠÙĤØ·Ø¹": 5211,
      "ĠÙĦÙĪÙĨ": 5212,
      "Ø§ØŃØ¸": 5213,
      "ĠØªÙĤÙĪÙħ": 5214,
      "Ġcere": 5215,
      "ÙĬØ±ÙĪÙĨ": 5216,
      "ĠØ§ÙĦØ£Ø±": 5217,
      "eed": 5218,
      "ĠØ§ÙĦØ£Ø®Ø¶Ø±": 5219,
      "ĠÙĬØ±ÙĥØ¶": 5220,
      "ÙĥÙĬØ±": 5221,
      "Ġsetting": 5222,
      "ĠØªÙĪÙĤ": 5223,
      "Ġbear": 5224,
      "ĠØ§ÙĦÙĨÙĪÙħ": 5225,
      "bit": 5226,
      "Ġcool": 5227,
      "ĠØ¨Ùģ": 5228,
      "urs": 5229,
      "Ġmyself": 5230,
      "Ø§Ø³ÙĬØ©": 5231,
      "Ø§ØµÙĬÙĦ": 5232,
      "ĠÙĬÙħÙĥÙĨÙĨØ§": 5233,
      "ĠÙĨØ§ÙģØ°Ø©": 5234,
      "Al": 5235,
      "ĠØ§ÙĦÙĤØ±ÙĬØ©": 5236,
      "ĠØ¬Ø±": 5237,
      "selves": 5238,
      "yn": 5239,
      "Ġtest": 5240,
      "Ġep": 5241,
      "ĠØ§ÙĥØ«Ø±": 5242,
      "ĠØ§ÙĦØŃØµÙĪÙĦ": 5243,
      "ĠØ§ÙĦØŃÙĥÙĪÙħØ©": 5244,
      "ÙĪØ¯Ø§": 5245,
      "Ġproduced": 5246,
      "three": 5247,
      "Ġstrategies": 5248,
      "vert": 5249,
      "Ġpersonal": 5250,
      "Ġposing": 5251,
      "hib": 5252,
      "lin": 5253,
      "Ġneigh": 5254,
      "Ø¬ÙĦØªØ±Ø§": 5255,
      "ĠØ§ÙĦØ¨ÙĬØª": 5256,
      "Ø¹ÙĦÙħ": 5257,
      "ĠÙĦÙĬÙĨ": 5258,
      "ĠPro": 5259,
      "Ġbat": 5260,
      "ĠØ¹Ø¯Ùħ": 5261,
      "ĠÙĬØ¬ÙĦØ³Ø§ÙĨ": 5262,
      "dam": 5263,
      "ift": 5264,
      "ĠØ§ÙĦØ¨ÙĬØ§ÙĨØ§Øª": 5265,
      "ĠMan": 5266,
      "ĠØ§ÙĦÙħØŃØ·Ø©": 5267,
      "eal": 5268,
      "val": 5269,
      "ĠØ§ÙĦÙĥÙĨÙĬØ³Ø©": 5270,
      "Ġquite": 5271,
      "ĠFor": 5272,
      "Ġsecurity": 5273,
      "Ġservices": 5274,
      "cher": 5275,
      "Ø¨Ø±Øª": 5276,
      "ĠØ§ÙĦÙĪØ·ÙĨÙĬ": 5277,
      "Ø§ÙĨÙĩØ§": 5278,
      "ÙĬÙĥÙĬØ©": 5279,
      "ĠØ§ÙĦØ§Ø¨": 5280,
      "Ø°Ø±Ø§": 5281,
      "ĠØ§ÙĦØªØ¹ÙĦÙĬÙħ": 5282,
      "ĠØ§ÙĦØ³ÙĥØ§ÙĨ": 5283,
      "ĠØ·Ø±ÙĬÙĤØ©": 5284,
      "ĠÙħØ§Ùĥ": 5285,
      "rian": 5286,
      "ĠÙħØ¨Ø§Ø´Ø±Ø©": 5287,
      "ĠØ§ÙĦØ£Ø´ÙĬØ§Ø¡": 5288,
      "ÙħÙĨØ¸Ø±": 5289,
      "Ġtelevision": 5290,
      "ĠØ§ÙĦÙĩÙĬ": 5291,
      "ĠÙĩØ§Ø±": 5292,
      "ÙħÙĦØµÙĤ": 5293,
      "Ġminute": 5294,
      "Ø´ÙĪ": 5295,
      "ĠMc": 5296,
      "Ġarms": 5297,
      "ĠØ¨ÙĥÙĦ": 5298,
      "ĠÙħÙħÙĦ": 5299,
      "ÙħÙĤ": 5300,
      "ÙĪØ§ÙĨÙĬØ©": 5301,
      "ĠØ£Ø°ÙĩØ¨": 5302,
      "Ġpick": 5303,
      "ĠØ¨Ø±ÙĨØ§ÙħØ¬": 5304,
      "Ġdistrict": 5305,
      "hood": 5306,
      "Ġcause": 5307,
      "ĠØ¨Ø³ÙĬ": 5308,
      "Ġimprove": 5309,
      "off": 5310,
      "ination": 5311,
      "asc": 5312,
      "ĠÙĥØ§Øª": 5313,
      "ĠØ£ÙĨÙĪØ§Ø¹": 5314,
      "ĠØ·Ùģ": 5315,
      "ÙĪÙĥÙĬ": 5316,
      "ĠØ§ÙĦØ®ÙĦÙģÙĬ": 5317,
      "ĠØ£Ø²ÙĬØ§Ø¡": 5318,
      "Ġitem": 5319,
      "Ø§Ø¬Ø±": 5320,
      "Ġmethod": 5321,
      "ĠÙĬØŃØªÙĪÙĬ": 5322,
      "itted": 5323,
      "ĠØ§Ø¨ÙĨ": 5324,
      "ĠAfter": 5325,
      "ĠØ§ÙĦØ´ÙħØ§ÙĦÙĬØ©": 5326,
      "may": 5327,
      "ÙģÙĤØ·": 5328,
      "ĠÙĤØ±ÙĬØ©": 5329,
      "iform": 5330,
      "ÙĪØ§Ø±Ø¨": 5331,
      "ĠØ§Ø¬ÙĦ": 5332,
      "orld": 5333,
      "Ġdoll": 5334,
      "Ġplat": 5335,
      "Ø±ÙĪØ¶": 5336,
      "Ġregion": 5337,
      "Ġchanged": 5338,
      "ÙħÙĪØ¹Ø§Øª": 5339,
      "Ġeating": 5340,
      "ĠÙĤØ·Ø¹Ø©": 5341,
      "Ø¨ÙĬØ°": 5342,
      "ĠØªØ¹ÙĨÙĬ": 5343,
      "Ø§Ø±Ø¶": 5344,
      "ĠØ§ÙĦØ£ØŃÙĬ": 5345,
      "ÙĬØªØ´": 5346,
      "Ġtitle": 5347,
      "Ġrace": 5348,
      "Ø§ÙģØ±": 5349,
      "ÙĩØªÙħØ§Ùħ": 5350,
      "At": 5351,
      "Ġfashion": 5352,
      "ĠEurope": 5353,
      "Ġtomorrow": 5354,
      "Ġstars": 5355,
      "ĠØ¯Ø±Ø¬": 5356,
      "aped": 5357,
      "ĠBut": 5358,
      "Ġdining": 5359,
      "ÙĪÙĦÙĪØ¬ÙĬØ§": 5360,
      "ĠØ§ÙĦØ¨Ø§Ø±": 5361,
      "Ġgen": 5362,
      "ĠØ¨Ø§ÙĦØ¹": 5363,
      "gers": 5364,
      "ĠÙģÙĦ": 5365,
      "ĠStates": 5366,
      "Ġspecies": 5367,
      "Ġbor": 5368,
      "ender": 5369,
      "Ġton": 5370,
      "arth": 5371,
      "amb": 5372,
      "igr": 5373,
      "ÙħØ§ÙĬØ©": 5374,
      "ĠØ§ÙĦÙĥØ¨ÙĬØ±Ø©": 5375,
      "ÙĪÙĦØ§ÙĬØ©": 5376,
      "Ġident": 5377,
      "ĠØ§ÙĦØ´ÙĬØ¡": 5378,
      "Ġolder": 5379,
      "Ø´ÙģÙī": 5380,
      "ĠÙĦÙĩÙħ": 5381,
      "ĠØŃÙĬÙĨ": 5382,
      "Ġexpress": 5383,
      "ĠØ§ÙĦÙĪØ³Ø·": 5384,
      "ĠØ§ÙĦÙĪØŃÙĬØ¯": 5385,
      "ÙħØ§Øª": 5386,
      "Ø¹ÙĨØ©": 5387,
      "Ø«ÙĤ": 5388,
      "Ø±Ø¨Ø¹Ø©": 5389,
      "ĠØ§ÙĦØµÙĪØª": 5390,
      "Ġtraining": 5391,
      "iers": 5392,
      "Ø£Ø±": 5393,
      "Ø§ØµØ±": 5394,
      "ĠÙĬØŃÙĤÙĤ": 5395,
      "ĠØ§ÙĦÙħÙĪØ³ÙĬÙĤÙĬØ©": 5396,
      "Ġchalleng": 5397,
      "Ø¨ÙĪÙĨ": 5398,
      "ĠØ«Ø§ÙĨÙĬØ©": 5399,
      "ĠÙĦÙĥÙĨÙĩ": 5400,
      "ĠÙĪØ³ÙĬ": 5401,
      "ÙħØ±Ùĥ": 5402,
      "Ġclos": 5403,
      "Ġcabin": 5404,
      "Ø´Ø·Ø©": 5405,
      "Ġincludes": 5406,
      "ĠØ§ÙĦÙħØ®ØªÙĦÙģØ©": 5407,
      "Ġeast": 5408,
      "Ġcounty": 5409,
      "ĠØ³Ø§ÙĨ": 5410,
      "ÙĪØªÙĬ": 5411,
      "ĠØ§ÙĦØ¨ÙĦØ¯Ø©": 5412,
      "Ġanyone": 5413,
      "ĠØ§ÙĦÙĨØ§ÙģØ°Ø©": 5414,
      "ena": 5415,
      "Ø´Ø§Ùģ": 5416,
      "ĠÙĦÙĦØ¬": 5417,
      "ĠØ¨Ø§ÙĦØ®": 5418,
      "Ġsports": 5419,
      "Ø§Ø¦Ø¬": 5420,
      "Ġsecret": 5421,
      "Ø§Ø¯ÙĬ": 5422,
      "Ø§ÙĦØ´Ø®Øµ": 5423,
      "ĠÙħÙĬÙĦ": 5424,
      "Ġpull": 5425,
      "ĠØ¥ÙĬØ¬": 5426,
      "ĠØ§ÙĦÙĤØ§ÙĨÙĪÙĨ": 5427,
      "ĠØªÙĤØ¯ÙĬÙħ": 5428,
      "Ġenviron": 5429,
      "door": 5430,
      "ĠØ§ÙĦØªØ¬Ø§Ø±ÙĬØ©": 5431,
      "Ø·Ø¹": 5432,
      "ĠØ§ÙĦÙĥØªØ¨": 5433,
      "ĠØ§ÙĦØ£ØµÙĦÙĬ": 5434,
      "Ġbasketball": 5435,
      "ĠØ·Ø§Ø¦Ø±Ø©": 5436,
      "ĠØªØ¶": 5437,
      "ĠØ±ÙĤ": 5438,
      "ĠØªØŃÙĤÙĬÙĤ": 5439,
      "Ġwonder": 5440,
      "ray": 5441,
      "Ġcute": 5442,
      "Ġschools": 5443,
      "Ġobject": 5444,
      "ØªÙĩÙħ": 5445,
      "Ø¬ÙĪÙĨ": 5446,
      "road": 5447,
      "rench": 5448,
      "pet": 5449,
      "Ġcook": 5450,
      "Ġsex": 5451,
      "Ġentire": 5452,
      "ety": 5453,
      "Ġdistance": 5454,
      "ael": 5455,
      "Ġcho": 5456,
      "rom": 5457,
      "Ø§Ø¦Ø¯Ø©": 5458,
      "Ø§Ø¯ÙĦ": 5459,
      "ĠDist": 5460,
      "ĠØªÙģØ¶ÙĦ": 5461,
      "ivil": 5462,
      "Ġprefers": 5463,
      "aptop": 5464,
      "Ġhusband": 5465,
      "Ġsus": 5466,
      "Ø¯ÙĦ": 5467,
      "ĠØ¯ÙĬÙģ": 5468,
      "Ġago": 5469,
      "Ġtakes": 5470,
      "ĠØ§ÙĦØ¬ØŃÙĬÙħ": 5471,
      "ĠØ§ÙĦØ·ÙģÙĦ": 5472,
      "ĠÙħÙĦÙĥÙĬØ©": 5473,
      "ĠØ§ÙĦÙĬØ¯": 5474,
      "ĠÙģÙĩÙħ": 5475,
      "Ø§ÙģÙĬ": 5476,
      "walk": 5477,
      "ĠØªØ±Ùī": 5478,
      "ico": 5479,
      "ecause": 5480,
      "Ġearth": 5481,
      "Ġwinter": 5482,
      "Ø§ÙĦÙĩ": 5483,
      "ĠÙĬØªØŃ": 5484,
      "ully": 5485,
      "hel": 5486,
      "Ġexist": 5487,
      "Ø±Ø¯Øª": 5488,
      "Ġdirt": 5489,
      "ĠØ§ÙĦØ¹ÙĤ": 5490,
      "Ġexample": 5491,
      "ĠØ§ÙĦØ¨ØŃØ«": 5492,
      "ĠÙĪØ±Ø¯ÙĬ": 5493,
      "com": 5494,
      "Ġlaptop": 5495,
      "ĠÙĥÙĪØ¨": 5496,
      "Ġeye": 5497,
      "ÙĦÙĬØ²ÙĬ": 5498,
      "Ġprison": 5499,
      "Ġplays": 5500,
      "Ġwatching": 5501,
      "Ġresearch": 5502,
      "rain": 5503,
      "Ø§ÙĥÙĦ": 5504,
      "Ġbrought": 5505,
      "ĠØ§ÙĦÙĦÙĩ": 5506,
      "Ġdriving": 5507,
      "roy": 5508,
      "Ġwaiting": 5509,
      "Ġreflect": 5510,
      "ÙĦØ§Ùĥ": 5511,
      "Ø§ÙĪÙĬØ©": 5512,
      "Ġeight": 5513,
      "Ġcontinued": 5514,
      "Ġallow": 5515,
      "ĠÙĪØ¬Ø¯": 5516,
      "Ġsoft": 5517,
      "ĠNational": 5518,
      "Ġmuse": 5519,
      "ĠÙģØ³ØªØ§ÙĨØ§": 5520,
      "col": 5521,
      "ĠØ¹ÙĬÙĨ": 5522,
      "Ġlady": 5523,
      "ĠØ§ÙĦØªØ±": 5524,
      "Ġshall": 5525,
      "elt": 5526,
      "ÙħÙĪØª": 5527,
      "Its": 5528,
      "ĠØ§ÙĦÙĬØ³": 5529,
      "ĠÙĬØ¹ÙĬØ´": 5530,
      "ĠÙĨØ¸Ø±": 5531,
      "ĠØ£ØºÙĨÙĬØ©": 5532,
      "ĠÙħÙģØªÙĪØŃØ©": 5533,
      "Ġum": 5534,
      "ĠØ§ÙĦØ³ÙĪØ¯Ø§Ø¡": 5535,
      "ĠGre": 5536,
      "ĠØ¥ÙĨØªØ§Ø¬": 5537,
      "uge": 5538,
      "Ġperfect": 5539,
      "Ġlargest": 5540,
      "ĠØ§ÙĦØ¨ØŃØ±ÙĬØ©": 5541,
      "zz": 5542,
      "ĠØ§ÙĦØ´Ø®ØµÙĬØ©": 5543,
      "ĠØ§ÙĦØ¨ØŃÙĬØ±Ø©": 5544,
      "rough": 5545,
      "Ø²Ø¹": 5546,
      "ĠØ®ÙħØ³": 5547,
      "Ø¯Ø¹Ùī": 5548,
      "Ġinflu": 5549,
      "ĠÙĨØ·Ø§ÙĤ": 5550,
      "Ġuniform": 5551,
      "ĠØ§Ø³ØªØ±Ø§ØªÙĬØ¬ÙĬØ§Øª": 5552,
      "Ġbike": 5553,
      "agon": 5554,
      "Ø¨Ø§Ø·": 5555,
      "Ġtoy": 5556,
      "ĠØ§ÙĦØ£ÙĦÙħ": 5557,
      "ÙĤØ¯Ø±": 5558,
      "ĠØ§ÙĦÙĥÙĦÙħØ§Øª": 5559,
      "Ġmoon": 5560,
      "Ġshoes": 5561,
      "ĠÙĦÙħØ§": 5562,
      "ĠØªÙħØ«Ø§ÙĦ": 5563,
      "Ø¯ÙĬØ±": 5564,
      "ĠOne": 5565,
      "uch": 5566,
      "ÙĬÙĪØ¬Ø¯": 5567,
      "Ø¨Ø²": 5568,
      "Ġgoals": 5569,
      "ÙĪÙĬØ§Øª": 5570,
      "ĠÙĬØ±ØªØ¯ÙĪÙĨ": 5571,
      "ĠØ§ÙĦØ£Ø³Ø§": 5572,
      "ius": 5573,
      "Ø¨Ø³": 5574,
      "Ø²Ø±": 5575,
      "ĠØ¬Ø§Ùĥ": 5576,
      "ĠØµØ¯ÙĬ": 5577,
      "Ø¹ÙĦØ§ÙĨ": 5578,
      "Ġtype": 5579,
      "Ø¯Ø§ÙĨ": 5580,
      "Ġrob": 5581,
      "ÙģØ¸": 5582,
      "inn": 5583,
      "Ø±Ø§ÙĬ": 5584,
      "Ø±ÙĪØ¬": 5585,
      "ĠÙħØ¬Ø¯Ø¯Ø§": 5586,
      "hi": 5587,
      "Ġhavent": 5588,
      "ĠÙĪÙĬØª": 5589,
      "ĠLondon": 5590,
      "ĠØ§ÙĦÙĩØ§ØªÙģ": 5591,
      "Ġwants": 5592,
      "Ġmanage": 5593,
      "Ġcreated": 5594,
      "Ġdate": 5595,
      "Ġhood": 5596,
      "Ġcountries": 5597,
      "ĠØ§ÙĦÙħÙĤØ§Ø·Ø¹Ø©": 5598,
      "Ġsilhou": 5599,
      "Ġbaseball": 5600,
      "ĠØ·Ø¹Ø§Ùħ": 5601,
      "ules": 5602,
      "ĠØ§ÙĦØ®ÙĬØ±": 5603,
      "ĠØ§ÙĦØ®Ø¶Ø±Ø§Ø¡": 5604,
      "ĠCol": 5605,
      "Ġdeveloped": 5606,
      "Ġicon": 5607,
      "!\"": 5608,
      "That": 5609,
      "ĠØ£Ø³Ø§": 5610,
      "Ġpu": 5611,
      "Ġyoull": 5612,
      "ĠØ§ÙĦØ¨Ø±ÙĬØ·": 5613,
      "cent": 5614,
      "view": 5615,
      "Ġparents": 5616,
      "ĠÙħÙĪØ³ÙĬÙĤÙī": 5617,
      "Ġaward": 5618,
      "ĠÙħØ§ÙĨ": 5619,
      "ĠØŃÙĪØ¶": 5620,
      "ĠØ¬Ø³Ø±": 5621,
      "ĠØªÙħØ´ÙĬ": 5622,
      "ĠÙħØªÙĨ": 5623,
      "aught": 5624,
      "Ġperformance": 5625,
      "Ġmuseum": 5626,
      "ĠÙĪÙĦÙħ": 5627,
      "ĠÙĩØ¤ÙĦØ§Ø¡": 5628,
      "ÙĨÙĬØ§Øª": 5629,
      "theres": 5630,
      "ÙĤØ§Ø¹Ø¯": 5631,
      "Ġanswer": 5632,
      "ĠÙĪØ§ÙĦÙģ": 5633,
      "ĠÙĥØ§ÙĨÙĪØ§": 5634,
      "Ġclassic": 5635,
      "ĠÙħÙĨÙĩÙħ": 5636,
      "ĠØ´Ø§Ø·Ø¦": 5637,
      "ĠØ¨Ø§Ø³Øª": 5638,
      "Ġdogs": 5639,
      "Ø·ÙĦØŃ": 5640,
      "Ġwebs": 5641,
      "Ġcustom": 5642,
      "Ġcit": 5643,
      "ĠØ§ÙĦÙĨØ¸Ø§Ùħ": 5644,
      "Ġfinal": 5645,
      "Ġrout": 5646,
      "ÙĪÙĤØ§Øª": 5647,
      "Ġveget": 5648,
      "gu": 5649,
      "ened": 5650,
      "ÙĦÙĬØ¯ÙĬØ©": 5651,
      "ĠØ§ÙĦØ¬ÙĪ": 5652,
      "Ġseven": 5653,
      "Ġself": 5654,
      "For": 5655,
      "ĠØ£Ø±Ùī": 5656,
      "ĠJapan": 5657,
      "ĠØ¨Ø§ÙĦØªØ£ÙĥÙĬØ¯": 5658,
      "Ø£ØµØ¨ØŃ": 5659,
      "ĠCar": 5660,
      "Ġnames": 5661,
      "ĠØ³ÙħØ§Ø¡": 5662,
      "ÙĪØ§ÙĬ": 5663,
      "ĠØ£Ø´Ø¬Ø§Ø±": 5664,
      "oe": 5665,
      "Ġwat": 5666,
      "ivid": 5667,
      "Ġcounter": 5668,
      "Ġge": 5669,
      "ĠÙĬØŃØª": 5670,
      "ĠØ§ÙĦØ¨Ø¯Ø§ÙĬØ©": 5671,
      "Ġresults": 5672,
      "ĠØ£Ø±Ø¨Ø¹": 5673,
      "ĠØ¨ÙĪØ±": 5674,
      "Ġmine": 5675,
      "aches": 5676,
      "Ø±Ø¨Ø¹": 5677,
      "resh": 5678,
      "pped": 5679,
      "Ġkiss": 5680,
      "ĠØ§ÙĦÙħÙĨØ§Ø·ÙĤ": 5681,
      "Ġwouldnt": 5682,
      "fri": 5683,
      "ĠØ¹Ø±Ùģ": 5684,
      "Ġban": 5685,
      "Ġhospital": 5686,
      "ĠÙĩÙĬÙĦ": 5687,
      "Ġinno": 5688,
      "Ġleather": 5689,
      "Ġgrowing": 5690,
      "raid": 5691,
      "Ġwine": 5692,
      "Ġpack": 5693,
      "ĠÙĬØ¤Ø¯ÙĬ": 5694,
      "?\"": 5695,
      "ining": 5696,
      "ÙĩØ±Øª": 5697,
      "Ġegg": 5698,
      "sy": 5699,
      "ÙģÙĬÙĦÙħ": 5700,
      "ĠÙĦØ¯ÙĬÙĩÙħ": 5701,
      "ĠÙħÙĦØ¹Ø¨": 5702,
      "ris": 5703,
      "ÙĬÙĪÙħ": 5704,
      "ĠØªÙĩ": 5705,
      "ĠØ¹Ø²ÙĬØ²": 5706,
      "ĠØ§ÙĦØ¹Ø§Ø¦ÙĦØ©": 5707,
      "Ġability": 5708,
      "ĠØªØ¹Ø§ÙĦ": 5709,
      "ĠÙĬØ¬Ø±ÙĬ": 5710,
      "ĠÙĨØ¬Ø§ØŃ": 5711,
      "Ġattended": 5712,
      "ĠØ§ÙĦÙħÙĤØ¯ÙħØ©": 5713,
      "gn": 5714,
      "oot": 5715,
      "ĠØ§Øº": 5716,
      "ogn": 5717,
      "Ġda": 5718,
      "Ø·Ø§": 5719,
      "ĠGeor": 5720,
      "Ġversion": 5721,
      "Ġhouses": 5722,
      "Ø£Ø®": 5723,
      "Ġhours": 5724,
      "Ġamerican": 5725,
      "Ġrelationship": 5726,
      "Ġfit": 5727,
      "Ġfemale": 5728,
      "ĠØ£ÙĬØ§Ùħ": 5729,
      "Ġwish": 5730,
      "ĠØªØ±Øª": 5731,
      "ĠØ§ÙĦØºØ±ÙģØ©": 5732,
      "Ġsurpr": 5733,
      "ĠØ§ÙĦØ£ØºÙĨÙĬØ©": 5734,
      "ÙĪØ§ÙĨÙĬ": 5735,
      "ØŃØµ": 5736,
      "ĠØµØ§ØŃ": 5737,
      "ĠTown": 5738,
      "Ġminutes": 5739,
      "Ġtransl": 5740,
      "Ġdrive": 5741,
      "Ġtot": 5742,
      "ocolate": 5743,
      "ĠØ¹ÙĨÙĬ": 5744,
      "ĠØªØ·ÙĪÙĬØ±": 5745,
      "eral": 5746,
      "ĠÙĦÙĥÙħ": 5747,
      "Ġcontribut": 5748,
      "ĠØ§Ø³ØªØ®Ø¯Ùħ": 5749,
      "Ø¹ÙĨØ¯ÙħØ§": 5750,
      "Ġbill": 5751,
      "Ø¬Ø§Ø¯Ø©": 5752,
      "ÙĦÙĬØ§Ùħ": 5753,
      "ØªÙĨØ§": 5754,
      "Ø¨Ø¶": 5755,
      "ĠØ§ÙĦÙħØ¹ÙĦÙĪÙħØ§Øª": 5756,
      "ÙĬØ¯Ø§": 5757,
      "ĠØªØªÙħ": 5758,
      "ĠÙĬØ¤": 5759,
      "Ġju": 5760,
      "istic": 5761,
      "ĠØ§ÙĦÙĥØ¨ÙĬØ±": 5762,
      "Ġdressed": 5763,
      "cient": 5764,
      "Ġesc": 5765,
      "Ø§ÙĦÙħÙĬ": 5766,
      "ØŃÙĬÙĦ": 5767,
      "Ġroll": 5768,
      "ĠØªØ¹Ø±Ø¶": 5769,
      "ĠÙĩÙĪÙĦ": 5770,
      "Ġcolors": 5771,
      "Ø¹ÙĬØ´Ø©": 5772,
      "ĠØ¥Ø¯Ø§Ø±Ø©": 5773,
      "Ġreason": 5774,
      "Ġinsp": 5775,
      "ĠÙĪØ§ÙĦØªÙĬ": 5776,
      "azing": 5777,
      "ĠØ§ÙĦÙĪØ·ÙĨÙĬØ©": 5778,
      "ĠØ£ØµÙģØ±": 5779,
      "ĠØ´ÙĩØ±": 5780,
      "ĠÙħØ´Ø±ÙĪØ¹": 5781,
      "Ġremain": 5782,
      "Ġsongs": 5783,
      "Ġop": 5784,
      "ĠÙĦÙĦØ´": 5785,
      "Ġprevious": 5786,
      "ĠØ§ÙĦÙħØ´Ø±ÙĪØ¹": 5787,
      "Ġtraditional": 5788,
      "Ġtouch": 5789,
      "Ġpet": 5790,
      "Ġleast": 5791,
      "ÙĤÙĦØª": 5792,
      "ĠØ§ÙĦÙħØ¬ØªÙħØ¹": 5793,
      "Ġdanc": 5794,
      "Ġforget": 5795,
      "ĠØ¨Ø¹ÙĬØ¯Ø§": 5796,
      "adem": 5797,
      "Ġtrail": 5798,
      "ĠÙħØ¬Ø§ÙĦ": 5799,
      "Ġscene": 5800,
      "Ġdesigned": 5801,
      "ÙĪÙĬØ§": 5802,
      "Ġcouch": 5803,
      "Ø²ÙĨ": 5804,
      "Ø¶Ø¯Ø©": 5805,
      "ands": 5806,
      "ae": 5807,
      "Ġmater": 5808,
      "Ġarab": 5809,
      "attoo": 5810,
      "Ø¬Ø§Ø²": 5811,
      "Ġarrest": 5812,
      "ston": 5813,
      "unt": 5814,
      "Ġplaces": 5815,
      "Ġremains": 5816,
      "ĠØ£ÙĪØ±Ø§ÙĤ": 5817,
      "ĠÙĤÙĨØ§": 5818,
      "itter": 5819,
      "ĠÙĦØ§Øª": 5820,
      "Ġhol": 5821,
      "ĠÙħØ¨Ø§Ø±": 5822,
      "Ġwalks": 5823,
      "Ġbirthday": 5824,
      "back": 5825,
      "got": 5826,
      "Ġbirds": 5827,
      "ÙĥØ±ÙĬ": 5828,
      "Ø²ÙĩÙĪØ±": 5829,
      "Ġrac": 5830,
      "ĠFrench": 5831,
      "ÙħØ¨ÙĬ": 5832,
      "ĠØ£ÙĪÙĦØ§": 5833,
      "Ø³ÙĬØ³": 5834,
      "thern": 5835,
      "ÙĨÙĪØ¹": 5836,
      "Ø£Ùħ": 5837,
      "Ġshoot": 5838,
      "Ø«ÙĬ": 5839,
      "ÙĦÙĥØªØ±": 5840,
      "umn": 5841,
      "iforn": 5842,
      "ĠÙģØ±ÙĨ": 5843,
      "Ġmachine": 5844,
      "ĠØ§ÙĦÙħØ§Ø¶ÙĬ": 5845,
      "Ġlaugh": 5846,
      "ĠSw": 5847,
      "Ġprobably": 5848,
      "ĠÙħÙĬÙĨ": 5849,
      "ØµÙĬ": 5850,
      "Ġmagaz": 5851,
      "Ġvoice": 5852,
      "Ġproblems": 5853,
      "ĠØ£ÙĥÙĪÙĨ": 5854,
      "ĠØ§ÙĦØ£Ø±Ø¬": 5855,
      "Ġrocks": 5856,
      "ĠÙĪÙĩØ°Ø§": 5857,
      "ĠAustral": 5858,
      "istr": 5859,
      "ĠØŃÙĤÙĪÙĤ": 5860,
      "And": 5861,
      "oose": 5862,
      "ÙħØ±Ø£Ø©": 5863,
      "Ġcomb": 5864,
      "ĠØ¨Ø¯Ø£Øª": 5865,
      "ÙĬÙĤØ¹": 5866,
      "ĠØ§ÙĦØ¬Ø§Ùħ": 5867,
      "ĠÙĥÙĦÙĬØ©": 5868,
      "ĠØŃÙĬØ§ØªÙĩ": 5869,
      "Ġsafe": 5870,
      "ĠØ§ÙĦÙħÙĪØª": 5871,
      "then": 5872,
      "Ø¹Ø¨ÙĬØ©": 5873,
      "ÙĩÙĪØ¯": 5874,
      "ĠÙĦØ§ÙģØªØ©": 5875,
      "ĠØªØ³Ø¬ÙĬÙĦ": 5876,
      "Ġturned": 5877,
      "Ġfair": 5878,
      "Ø§ØªÙĦ": 5879,
      "Ø±Ø±": 5880,
      "Ġtattoo": 5881,
      "ĠÙĦØ±": 5882,
      "ĠØ¥Ø³Øª": 5883,
      "Ġenc": 5884,
      "ĠØ±Ø¤ÙĬØ©": 5885,
      "ĠÙĤØ±Ø¨": 5886,
      "ÙĤØ±Ø§Ø·": 5887,
      "Ġtonight": 5888,
      "ifornia": 5889,
      "owers": 5890,
      "ĠØ¬ÙĪØ±Ø¬": 5891,
      "Ġthroughout": 5892,
      "Ġafraid": 5893,
      "ØŃÙĪ": 5894,
      "ago": 5895,
      "Ġaccept": 5896,
      "ĠØ§ÙĦØ§ÙĨØªØ®": 5897,
      "ÙĬÙĨØ¬": 5898,
      "ĠÙĪØ§ÙĦØ¥": 5899,
      "Ġexactly": 5900,
      "ĠÙĦÙģ": 5901,
      "Ġdesert": 5902,
      "ken": 5903,
      "Ø±ÙĪØ§Øª": 5904,
      "ĠØ£ØŃÙĬ": 5905,
      "Ø¯ÙģÙĤ": 5906,
      "ÙĥÙĪØ¨": 5907,
      "Ġlat": 5908,
      "Ġwoods": 5909,
      "Ġfunny": 5910,
      "ĠØ£Ø¹Ø¶Ø§Ø¡": 5911,
      "Ø§Ø¦Ùĩ": 5912,
      "Ġinternet": 5913,
      "ĠDistrict": 5914,
      "Ġgar": 5915,
      "Ø¸Ø§Ø±": 5916,
      "Ġshape": 5917,
      "Ġchamp": 5918,
      "ĠÙĨØ°ÙĩØ¨": 5919,
      "hern": 5920,
      "ĠÙħØªØ¹Ø¯": 5921,
      "ĠØ§ÙĦØ¯Ø±Ø§": 5922,
      "Ġcities": 5923,
      "Ġlondon": 5924,
      "Ø¢Ø®Ø±": 5925,
      "ĠSe": 5926,
      "ĠØ§ÙĦØµÙĨØ§": 5927,
      "Ġveh": 5928,
      "Ġactivities": 5929,
      "Ġjournal": 5930,
      "ĠÙħÙĪØ±": 5931,
      "thank": 5932,
      "ĠØªØ´ØºÙĬÙĦ": 5933,
      "Ġcold": 5934,
      "ÙħØ¹ÙĬØ©": 5935,
      "Ø±Ø§Ø²": 5936,
      "Ø¯ÙĪØ§Øª": 5937,
      "Ġenvironment": 5938,
      "ĠØ¨Ø§ÙĦØ³": 5939,
      "ĠÙħØ·Ø¹Ùħ": 5940,
      "ĠØ±ÙħØ§Ø¯ÙĬ": 5941,
      "ĠØ¨Ø±Ø§": 5942,
      "ria": 5943,
      "Ġnetwork": 5944,
      "ĠÙĬØ¶": 5945,
      "ĠØ§ÙĦÙħØ¹ÙĬØ´Ø©": 5946,
      "ĠØ§ÙĦØ£ÙĦØ¹Ø§Ø¨": 5947,
      "oul": 5948,
      "ĠØ§ÙĦÙĨØ¸Ø±": 5949,
      "Ø¯Ø±Ø§Øª": 5950,
      "Ġproduction": 5951,
      "ĠÙĦÙĦØªÙĪ": 5952,
      "Ġsummer": 5953,
      "ĠØ§ÙĦÙģØªØ§Ø©": 5954,
      "Ø£ØŃØ¨": 5955,
      "Ġones": 5956,
      "Ø¨Ø±ÙĬ": 5957,
      "ÙĤÙĬÙħ": 5958,
      "aign": 5959,
      "bour": 5960,
      "Ġtun": 5961,
      "ĠØ£ÙĨØŃØ§Ø¡": 5962,
      "uts": 5963,
      "Ġchick": 5964,
      "Ġopt": 5965,
      "Ġfast": 5966,
      "ĠØ§ÙĦØ·ÙĦÙĤ": 5967,
      "Ġcoat": 5968,
      "ÙĬÙĨØ§Øª": 5969,
      "ØºØ§ÙĨ": 5970,
      "ĠØ´Ø±ÙĤ": 5971,
      "Ġassoci": 5972,
      "ĠØ§ØŃØ¯": 5973,
      "Ġcapt": 5974,
      "On": 5975,
      "ĠØ§ÙĦÙħØ·Ø¨Ø®": 5976,
      "Ġgoes": 5977,
      "Ġgradu": 5978,
      "Ġur": 5979,
      "ĠØŃØ§ÙĪÙĦ": 5980,
      "ÙĪØ§ÙĤ": 5981,
      "ÙĩÙĬØ±": 5982,
      "Ġbench": 5983,
      "Ġcannot": 5984,
      "Ġdeep": 5985,
      "ÙĪØ±ÙĨÙĬØ§": 5986,
      "Ø¸ÙĦ": 5987,
      "ĠSome": 5988,
      "Ġtried": 5989,
      "Ġoil": 5990,
      "ÙĪÙħÙĨ": 5991,
      "ÙĨØ¯ÙĬØ©": 5992,
      "ĠØ£Ø±Ø¬ÙĪÙĥ": 5993,
      "ĠÙħØºØ·Ø§Ø©": 5994,
      "Ġparticular": 5995,
      "ĠØ°ÙĩØ¨ÙĬØ©": 5996,
      "ĠØ§ÙĦØŃØ¯ÙĬØ¯ÙĬØ©": 5997,
      "ĠØ§ÙĦØ¯ÙĬÙĨ": 5998,
      "Ġreach": 5999,
      "Ġdiscuss": 6000,
      "Ø§Ø¬Ø¹": 6001,
      "Ġruns": 6002,
      "ĠÙĤØ§ÙħØª": 6003,
      "Ġord": 6004,
      "ĠÙħØŃØª": 6005,
      "ĠNor": 6006,
      "Ġpositive": 6007,
      "Ġobs": 6008,
      "Ġanimal": 6009,
      "ĠØ§ÙĦØ£Ø¯": 6010,
      "ĠÙĤØµØ©": 6011,
      "Ġtruth": 6012,
      "ode": 6013,
      "Ġcapital": 6014,
      "ÙĥÙĬÙĦ": 6015,
      "Ġcrazy": 6016,
      "Ġmor": 6017,
      "Ġjud": 6018,
      "ĠØ§ÙĦÙĤÙĩÙĪØ©": 6019,
      "ĠHar": 6020,
      "Ø±Ø§Ùĩ": 6021,
      "Ġsell": 6022,
      "empt": 6023,
      "Ġairport": 6024,
      "ĠÙĪØ±ÙĤØ©": 6025,
      "Ġlie": 6026,
      "Ø¨ÙĦØº": 6027,
      "Ġclaim": 6028,
      "Ġposition": 6029,
      "ĠØ§ÙĦØ±ÙĬØ§Ø¶ÙĬØ©": 6030,
      "scape": 6031,
      "Ġappeared": 6032,
      "Ġsat": 6033,
      "ĠØ¬Ø§ÙĨ": 6034,
      "Ġoutdoor": 6035,
      "ĠÙģØ±ØµØ©": 6036,
      "ĠØ§ÙĦØ£ÙħÙĪØ±": 6037,
      "ĠØ§ÙĦÙħØ¨Ø§ÙĨÙĬ": 6038,
      "ÙĩÙĪÙĦØ©": 6039,
      "Ø¨Ø¯Ø§": 6040,
      "ĠØºØ±Ø¨": 6041,
      "Ġknows": 6042,
      "ĠØ§ÙĦÙĥÙĨ": 6043,
      "ĠØ®Ø²": 6044,
      "cell": 6045,
      "Ġtool": 6046,
      "ĠØ§ÙĦÙĤÙĬØ§Ùħ": 6047,
      "ÙĤØ§Ø¡": 6048,
      "Ġcy": 6049,
      "ĠØ§ÙĦÙħÙħ": 6050,
      "ØºØ§Øª": 6051,
      "Ø§ÙģÙĬØ©": 6052,
      "Ġabs": 6053,
      "Ġfigure": 6054,
      "ĠØ£Ø·": 6055,
      "Ġang": 6056,
      "Ø³Ø¨ØŃ": 6057,
      "ĠÙĪØ£Ø³ÙĪØ¯": 6058,
      "fully": 6059,
      "Ġanimals": 6060,
      "ĠØ¨Ø±ØªÙĤØ§ÙĦÙĬØ©": 6061,
      "Ø§Ø¦ØŃ": 6062,
      "ĠØ£ÙĥÙĨ": 6063,
      "Ġdue": 6064,
      "ØµØŃ": 6065,
      "ĠÙĨÙĤÙĦ": 6066,
      "ĠÙħØ¨Ø§Ø±Ø§Ø©": 6067,
      "ĠâĻª": 6068,
      "ØªÙħØ±": 6069,
      "ĠØ¨ÙĪÙĦØ§ÙĬØ©": 6070,
      "icated": 6071,
      "ÙĬØ¨Ø¯ÙĪ": 6072,
      "Ġeducation": 6073,
      "Ġsurface": 6074,
      "Ø¬Ø§Ø¨": 6075,
      "ÙĤØ¨Ø©": 6076,
      "Ġburn": 6077,
      "Ġcompan": 6078,
      "Ġpictures": 6079,
      "Ġparticip": 6080,
      "ners": 6081,
      "ĠØ§ÙĦØ§Ø´": 6082,
      "ĠÙĦØ§Ø¨": 6083,
      "ÙĪØ§ÙĬØ©": 6084,
      "ÙĪØ§ÙģÙĤ": 6085,
      "ĠØ§ÙĦÙħÙĦØ¹Ø¨": 6086,
      "ĠÙĦÙĦØ®": 6087,
      "ĠØ§ÙĦØ·Ø¨ÙĬØ¹ÙĬØ©": 6088,
      "ĠØ±ÙħØ§Ø¯ÙĬØ©": 6089,
      "Ġprivate": 6090,
      "rell": 6091,
      "ĠØ³Ø±ÙĬ": 6092,
      "Ø¨ÙĬÙĤ": 6093,
      "Ġfamous": 6094,
      "ØªÙĦÙĥ": 6095,
      "ÙĩÙĪÙĦ": 6096,
      "ĠØ§ÙĦØ£ÙħØ±ÙĬÙĥÙĬ": 6097,
      "Ġsepar": 6098,
      "Ġleaving": 6099,
      "Ġrecogn": 6100,
      "ĠØªÙĦØ¹Ø¨": 6101,
      "Ġcream": 6102,
      "ĠÙĬØ¬Ø¹ÙĦ": 6103,
      "ĠØ¯ÙĤÙĬÙĤØ©": 6104,
      "Ġemploy": 6105,
      "ĠÙĦØ³": 6106,
      "Ø³ÙĬÙĥÙĬ": 6107,
      "Ġlos": 6108,
      "ĠØŃÙħØ§Ùħ": 6109,
      "Ġfurther": 6110,
      "ĠÙħØ±ÙĬ": 6111,
      "ĠOn": 6112,
      "Ġindivid": 6113,
      "ĠØ³Ø§Ø¹Ø¯": 6114,
      "Ġwow": 6115,
      "Ġcertain": 6116,
      "ĠÙĦÙģØª": 6117,
      "ilities": 6118,
      "oung": 6119,
      "iction": 6120,
      "ÙħÙĥ": 6121,
      "ÙĩÙĪÙħ": 6122,
      "ĠBritish": 6123,
      "Ġcorner": 6124,
      "ĠØ§ÙĦÙħØ¹Ø¯": 6125,
      "ĠØ³Ø¨Ø¨": 6126,
      "oub": 6127,
      "ĠØ®Ø±ÙĬØ·Ø©": 6128,
      "ĠØ§Ø³ØªÙħØ±": 6129,
      "Ø§ÙĦØ³": 6130,
      "ĠØ¬Ø§Ùĩ": 6131,
      "ĠØ§ÙĦØ¹Ø«ÙĪØ±": 6132,
      "Ġsuff": 6133,
      "Ġlaying": 6134,
      "abor": 6135,
      "ĠÙħØªØ¬Ø±": 6136,
      "Ġbutter": 6137,
      "ĠÙħØ§Ø±ÙĬ": 6138,
      "ĠÙĤØ·Ø©": 6139,
      "enced": 6140,
      "erg": 6141,
      "ĠØ§Ø¹ØªÙĤØ¯": 6142,
      "ĠØ§ÙĦÙĨØ³": 6143,
      "Ġchocolate": 6144,
      "ublic": 6145,
      "Ġcastle": 6146,
      "time": 6147,
      "ĠØŃØµØ§ÙĨ": 6148,
      "ĠÙĪØ§ÙĦÙĥ": 6149,
      "ĠØ¶Ø¹": 6150,
      "orpor": 6151,
      "ĠØ§ÙĦÙĤØ¯ÙĬÙħ": 6152,
      "ÙĬÙģÙĪØ±ÙĨÙĬØ§": 6153,
      "Ø¯Ø±Ø³": 6154,
      "Ġleading": 6155,
      "Ġclock": 6156,
      "ÙĥØªØ´Ùģ": 6157,
      "ĠÙĪØµÙģ": 6158,
      "Ġmix": 6159,
      "Ø®ÙĬÙĦ": 6160,
      "ĠÙĥØ±ØªÙĪÙĨÙĬØ©": 6161,
      "ĠØ§ÙĦÙĦØ§Ø¹Ø¨": 6162,
      "inger": 6163,
      "ÙĪÙĥØ³": 6164,
      "ĠØ£ÙĦÙģ": 6165,
      "ĠÙĬØŃØ¶Ø±": 6166,
      "ĠØ§ÙĦØ£ØŃÙĬØ§ÙĨ": 6167,
      "craft": 6168,
      "ĠÙĦÙĬÙĦØ©": 6169,
      "ĠØ§ÙĦØªØŃØ¯Ø«": 6170,
      "ÙĩÙħÙĬØ©": 6171,
      "Ġarr": 6172,
      "Ġtreat": 6173,
      "Ġplatform": 6174,
      "ĠØ¨Ø§ÙĦØ¶": 6175,
      "Ġintrod": 6176,
      "give": 6177,
      "ÙĥÙĦÙħ": 6178,
      "Ø¨ÙĪØ¨": 6179,
      "Ġsam": 6180,
      "Ġlad": 6181,
      "Ø«ÙĨØ§Ø¡": 6182,
      "ĠØ¶ÙħÙĨ": 6183,
      "ĠØ§Ø«ÙĨÙĬÙĨ": 6184,
      "Ġfro": 6185,
      "Ġframe": 6186,
      "Ø±Ø§Ø¹": 6187,
      "Ø§Ø®ÙĦÙĬ": 6188,
      "ference": 6189,
      "ĠØ§ÙĦØ´ÙħØ§ÙĦÙĬ": 6190,
      "Ġnatural": 6191,
      "ĠÙĦÙħÙĨ": 6192,
      "Ġteacher": 6193,
      "Ġsimple": 6194,
      "Ø¯Ø®ÙĦ": 6195,
      "Ġwild": 6196,
      "ĠØªØ³ÙħÙĬØ©": 6197,
      "Ġreturned": 6198,
      "Ġfavor": 6199,
      "Ġtro": 6200,
      "ĠBar": 6201,
      "ips": 6202,
      "Ġsout": 6203,
      "itect": 6204,
      "ĠØ§ÙĦØ±ØµÙĬÙģ": 6205,
      "Ø¨ÙĤÙī": 6206,
      "ĠÙĪØ§ÙĦÙĤ": 6207,
      "ĠÙģØ±Ø§ÙĨ": 6208,
      "ĠÙĥÙĨØ§": 6209,
      "ĠÙħØ¹ÙĦ": 6210,
      "ÙĨÙĬÙģ": 6211,
      "Ø¤Ø§ÙĦ": 6212,
      "ØµØ§Ø±": 6213,
      "Many": 6214,
      "ux": 6215,
      "ĠØ¨Ø±Ø¬": 6216,
      "ĠØŃÙģÙĦØ©": 6217,
      "sey": 6218,
      "ÙĪØ§Ø¹Ø¯": 6219,
      "Ġprovided": 6220,
      "Ġestab": 6221,
      "ÙĨØ§ÙĤ": 6222,
      "Ġphil": 6223,
      "ĠØ¥ØµØ¯Ø§Ø±": 6224,
      "Ġrange": 6225,
      "Ġnovel": 6226,
      "Ġcarpet": 6227,
      "ĠØ§ÙĦÙħØŃÙĦÙĬ": 6228,
      "ĠØ§Ø¶": 6229,
      "Ø³Ø³Ø©": 6230,
      "ĠØ§ÙĦØªØ£": 6231,
      "ĠAd": 6232,
      "Ġcollege": 6233,
      "ĠWilliam": 6234,
      "lim": 6235,
      "Ġactor": 6236,
      "ĠÙĬÙĦ": 6237,
      "Ġwhos": 6238,
      "ĠØ§Ø®Ø±Ùī": 6239,
      "ÙĦØ§ÙĤØ§Øª": 6240,
      "Ø§Ø¸Ø±": 6241,
      "ĠÙĪØº": 6242,
      "Ø²ÙĬØ¯": 6243,
      "ĠØ£ÙĨÙĩÙħ": 6244,
      "Ġbranch": 6245,
      "Ġprofessional": 6246,
      "apers": 6247,
      "Ġconcept": 6248,
      "ĠÙĨÙģØ³ÙĩØ§": 6249,
      "ĠÙĦØ§ÙĨ": 6250,
      "ĠAir": 6251,
      "ĠØªØ¹Ø²ÙĬØ²": 6252,
      "ĠKing": 6253,
      "ĠØ±Ø³Ø§ÙĦØ©": 6254,
      "ĠØ§ÙĦÙĪØ²": 6255,
      "ĠØ¹Ø¯": 6256,
      "ĠÙĥÙĨÙĬØ³Ø©": 6257,
      "ĠØ§ÙĦØ·ÙĬÙĪØ±": 6258,
      "place": 6259,
      "ĠÙħØ±Ø§Øª": 6260,
      "ĠØ£Ø¬ÙħÙĦ": 6261,
      "unic": 6262,
      "Ø§ÙĩØ±Ø©": 6263,
      "ĠÙĪØ³Ø§": 6264,
      "Ġhig": 6265,
      "Ġsystems": 6266,
      "Ġcampaign": 6267,
      "One": 6268,
      "ÙĥÙĬÙĨ": 6269,
      "Ø£Ø®Ø°": 6270,
      "ĠØ²ÙĩØ±Ø©": 6271,
      "Ġsave": 6272,
      "Ġsituation": 6273,
      "ĠØ³Ø¹ÙĬØ¯Ø©": 6274,
      "ential": 6275,
      "ĠØ°ÙĥØ±": 6276,
      "Ġfruit": 6277,
      "icket": 6278,
      "ĠEngland": 6279,
      "ĠÙĪØ§ÙĦØ³": 6280,
      "ĠØ§ÙĦØ²Ø¬Ø§Ø¬": 6281,
      "Ġhoney": 6282,
      "ĠØ§ÙĦØ¥ÙĨ": 6283,
      "Ġperforming": 6284,
      "ĠÙĥÙĦÙħØ§Øª": 6285,
      "ĠØ§ÙĦØ§Ø¹Øª": 6286,
      "ĠÙĬØµÙĦ": 6287,
      "ĠØ¬Ø±ÙĬ": 6288,
      "adium": 6289,
      "Ġjeans": 6290,
      "Ġlying": 6291,
      "ĠØ¬Ø°": 6292,
      "Ġegypt": 6293,
      "Ġren": 6294,
      "ĠØ®Ø¯ÙħØ©": 6295,
      "Ø§Ø¯Ø«": 6296,
      "ĠØ£Ø´ÙĩØ±": 6297,
      "ĠØ§ÙĦØ³Ø¨Ø¨": 6298,
      "Ġiran": 6299,
      "Ġexcept": 6300,
      "ĠØªØ¹ÙĦÙĬÙħ": 6301,
      "ĠØ§ÙĦØ¥ÙĨØ¬ÙĦÙĬØ²ÙĬØ©": 6302,
      "Ġcontain": 6303,
      "Ġevents": 6304,
      "ĠÙħØ³ØªÙĪÙī": 6305,
      "ØªÙĨÙĬ": 6306,
      "Ġmask": 6307,
      "ĠØ§ÙĦÙħØ³ÙĬ": 6308,
      "ager": 6309,
      "Ġraised": 6310,
      "ĠØ³Ø¨Ø§ÙĤ": 6311,
      "ili": 6312,
      "ĠØ§ÙĦØ³ÙģÙĬÙĨØ©": 6313,
      "ĠÙĨØ¸Ø§Ø±Ø§Øª": 6314,
      "ĠØ§ÙĦØªØ§ÙĦÙĬØ©": 6315,
      "ÙĬÙģÙĬ": 6316,
      "ĠÙĬÙĤÙĪØ¯": 6317,
      "ĠÙĬØ±ØªØ¯ÙĬØ§ÙĨ": 6318,
      "ĠÙĪØªÙħ": 6319,
      "Ġlibr": 6320,
      "ĠØ§ÙĦØµÙĬÙĨ": 6321,
      "Ġsusp": 6322,
      "Ø§Ø¯Ø±Ø©": 6323,
      "aul": 6324,
      "ÙĪØ§Ø±Ø¹": 6325,
      "ĠØ³Ø§Ø¨": 6326,
      "ĠØ§ÙĦØ¬Ø¨ÙĦ": 6327,
      "Ġattract": 6328,
      "mony": 6329,
      "ĠØ³ÙĦØ©": 6330,
      "ĠØŃØ³Ø¨": 6331,
      "ĠØŃØ¶": 6332,
      "ĠØ«ÙĦØ¬": 6333,
      "Ġevening": 6334,
      "Ġwheres": 6335,
      "Ġahead": 6336,
      "ĠØ¨Ø§ÙĦØ±": 6337,
      "Ġlies": 6338,
      "ĠTe": 6339,
      "Ġnumbers": 6340,
      "Ø±Ø£Ø³": 6341,
      "mber": 6342,
      "ÙĪØªØ§": 6343,
      "ĠØ§ÙĦØºØ±Ø¨ÙĬ": 6344,
      "ĠØ§ÙĦÙħØ¯ÙĨ": 6345,
      "cast": 6346,
      "ĠØ¹Ø´Ø±Ø©": 6347,
      "Ø´ÙĬØ©": 6348,
      "Ø§ÙĦØ·": 6349,
      "Ġtowards": 6350,
      "ĠØ£ÙĦØ¨ÙĪÙħ": 6351,
      "ĠØ´Ø¨ÙĥØ©": 6352,
      "Ø±ÙģØ¹": 6353,
      "Ġclothes": 6354,
      "anish": 6355,
      "ĠØªØ¤": 6356,
      "Ġfence": 6357,
      "ĠØ§ÙĦØ´Øª": 6358,
      "Ø¦Ø§Øª": 6359,
      "ichael": 6360,
      "Ġbelow": 6361,
      "Ġbusy": 6362,
      "When": 6363,
      "Ġlines": 6364,
      "arty": 6365,
      "ĠØ§ÙĦØ°ÙĩØ¨": 6366,
      "ĠWorld": 6367,
      "Ġsignific": 6368,
      "tr": 6369,
      "Ġrather": 6370,
      "Ġspir": 6371,
      "isc": 6372,
      "Ġdeter": 6373,
      "ĠØ¨Ø¯ÙĦØ§": 6374,
      "intage": 6375,
      "ÙĬÙĨØª": 6376,
      "lands": 6377,
      "ĠØ§ÙĦØ£ÙħØ±ÙĬÙĥÙĬØ©": 6378,
      "ka": 6379,
      "rance": 6380,
      "ÙĦÙĦ": 6381,
      "ari": 6382,
      "ĠÙĦØ¯": 6383,
      "icles": 6384,
      "ander": 6385,
      "Ø§ÙģÙĦØ©": 6386,
      "Ġphys": 6387,
      "ĠÙĦÙĦØ³": 6388,
      "ĠØ§ÙĦØ³Ø§Ø¨ÙĤØ©": 6389,
      "ĠØ§ÙĦØ²ÙģØ§Ùģ": 6390,
      "Ġdecision": 6391,
      "ses": 6392,
      "Ġmale": 6393,
      "lement": 6394,
      "Ġclosed": 6395,
      "asses": 6396,
      "ĠÙĨØ§Ø¯ÙĬ": 6397,
      "ĠØ²Ø¬Ø§Ø¬ÙĬØ©": 6398,
      "ĠØ§ÙĦÙħÙĥØª": 6399,
      "Ø§Ø¦Ø¹Ø©": 6400,
      "ĠØ³ØªØ©": 6401,
      "ĠØªØ´ÙħÙĦ": 6402,
      "Ø³ØªØ±Ø§ÙĦÙĬØ§": 6403,
      "Ġapartment": 6404,
      "ĠÙħÙĬÙĦØ§Ø¯": 6405,
      "ĠÙĪØ±Ø§Ø¡": 6406,
      "ÙĬÙģØ§": 6407,
      "Ġmoving": 6408,
      "Ġstrength": 6409,
      "ĠÙĥØ¨ÙĬØ±Ø§": 6410,
      "medi": 6411,
      "ÙĦÙĥØ©": 6412,
      "erry": 6413,
      "asure": 6414,
      "ĠØ£Ø±Ø¶ÙĬØ©": 6415,
      "pro": 6416,
      "ĠÙĦØ´Ø®Øµ": 6417,
      "ĠØ§ÙĦØŃÙĬÙĪØ§ÙĨØ§Øª": 6418,
      "met": 6419,
      "Ø§ÙĦÙħØ§": 6420,
      "iday": 6421,
      "Ø§ÙĩØ¯Ø©": 6422,
      "ĠÙĩØ§Ùħ": 6423,
      "ĠØ§ÙĦØ³ÙĦØ©": 6424,
      "ĠPar": 6425,
      "ĠØ¶ÙĪØ¡": 6426,
      "ĠÙĦØ±Ø¬ÙĦ": 6427,
      "ÙĨØ§Ùĩ": 6428,
      "ĠÙĤÙģ": 6429,
      "Ø§Ø¦Ùĥ": 6430,
      "ĠAf": 6431,
      "emeter": 6432,
      "Ø±ÙĤØµ": 6433,
      "Ġdecided": 6434,
      "ÙħØ§Ø·": 6435,
      "ĠÙģÙĨ": 6436,
      "ĠÙĨÙĪØ±": 6437,
      "Ø±Ø§Ø¹Ø©": 6438,
      "ĠState": 6439,
      "Ġsubject": 6440,
      "atory": 6441,
      "Ø²ÙĦÙĬ": 6442,
      "ĠØ§ÙĦÙĤØ§Ø¯": 6443,
      "ÙĬÙĥØ§": 6444,
      "Ġmaterial": 6445,
      "Ø¯Ø§Ø«": 6446,
      "ĠØ´Ø§ØŃÙĨØ©": 6447,
      "Ø«ÙĦØ¬": 6448,
      "Ġcreative": 6449,
      "ĠØ§ÙĦÙħÙĦÙĪÙĨØ©": 6450,
      "Ġquickly": 6451,
      "ĠØ¬ÙĩØ§Ø²": 6452,
      "ÙĥØ±Øª": 6453,
      "Ø§ÙħÙĦØ©": 6454,
      "Ø§Ø¬Ø¹Ø©": 6455,
      "ĠØºØ¯Ø§": 6456,
      "Ø§Ø¶Ø©": 6457,
      "ĠCalifornia": 6458,
      "friend": 6459,
      "ĠØ§Ø±Øª": 6460,
      "ĠÙĤØµÙĬØ±": 6461,
      "ĠÙħÙħØ±": 6462,
      "erve": 6463,
      "ĠØŃØ³ÙĨ": 6464,
      "ĠØ§ÙĦØ£ÙģÙĦØ§Ùħ": 6465,
      "ĠØ§ÙĦØ³Ø±ÙĬØ±": 6466,
      "Ġsugg": 6467,
      "Ġconsider": 6468,
      "Ġburied": 6469,
      "ĠMount": 6470,
      "ĠØ§ÙĦØ§Ø³": 6471,
      "avid": 6472,
      "ĠØ§ÙĦØ«ÙĤ": 6473,
      "everal": 6474,
      "Ġah": 6475,
      "ĠÙħÙĪÙĤÙģ": 6476,
      "riage": 6477,
      "ĠØºØ±": 6478,
      "Ġprogress": 6479,
      "ÙĪØ³Øª": 6480,
      "Ġtie": 6481,
      "ĠÙħØ³Ø±ØŃ": 6482,
      "reme": 6483,
      "ØµÙĦØ§ØŃ": 6484,
      "ĠÙģØªØŃ": 6485,
      "ĠÙĪØ§ÙĨ": 6486,
      "ĠÙĬÙħØ³": 6487,
      "ĠØ§ÙĦØ·Ø¨": 6488,
      "ĠGu": 6489,
      "Ġceremony": 6490,
      "ØŃØ§Øª": 6491,
      "Ġemb": 6492,
      "Ġaint": 6493,
      "ĠØ§ÙĦØ¥Ø·ÙĦØ§ÙĤ": 6494,
      "ĠØ§Ø·": 6495,
      "Ġawards": 6496,
      "ĠØ§ÙĦØ´Ø¹": 6497,
      "ÙĢÙĬ": 6498,
      "Ġregular": 6499,
      "ĠÙĬØ·": 6500,
      "ĠÙģÙĬØ¯ÙĬÙĪ": 6501,
      "ĠØ¥Ø«": 6502,
      "Ø¹Ø§ÙĪÙĨ": 6503,
      "Ø³ÙĦØŃØ©": 6504,
      "Ġcollection": 6505,
      "Ġradio": 6506,
      "Ġcitiz": 6507,
      "ĠÙħØ®Øª": 6508,
      "ÙĦÙĬØ¬": 6509,
      "ĠIts": 6510,
      "ĠÙĬÙĦØ¹Ø¨ÙĪÙĨ": 6511,
      "ĠØ§ÙĦØ¥ÙĨØªØ±ÙĨØª": 6512,
      "hell": 6513,
      "rel": 6514,
      "ĠØªØ¹ØªØ¨Ø±": 6515,
      "ĠÙĪØ§ÙĦØ¬": 6516,
      "ulpt": 6517,
      "Ġenh": 6518,
      "Ø§ÙĪÙĦØ§Øª": 6519,
      "ÙĪØ·ÙĨ": 6520,
      "ĠÙĤØµÙĬØ±Ø©": 6521,
      "ĠØ§ÙĦÙĨØ¬ÙĪÙħ": 6522,
      "hem": 6523,
      "ĠÙĨØ³ÙĬ": 6524,
      "ĠØªØºÙĬØ±": 6525,
      "Ø¹Ø§ÙĬØ©": 6526,
      "ĠØªØ®Ø¨Ø±": 6527,
      "pec": 6528,
      "Ġage": 6529,
      "ĠÙĤØª": 6530,
      "ĠÙĤØ³Ùħ": 6531,
      "Ġslow": 6532,
      "mark": 6533,
      "Ø§Ø¹Ø¯": 6534,
      "Ġfrequ": 6535,
      "maybe": 6536,
      "ÙĨØ¯ÙĬ": 6537,
      "'ve": 6538,
      "please": 6539,
      "Ġtar": 6540,
      "ĠÙħÙĩÙħ": 6541,
      "ĠÙĪØ³Øª": 6542,
      "ÙīØ¡": 6543,
      "Ġham": 6544,
      "ĠÙĤØ±ÙĬØ¨": 6545,
      "Ø¸Ùģ": 6546,
      "ĠÙĥØ¹ÙĥØ©": 6547,
      "ĠÙĤØ¶": 6548,
      "Ġbelie": 6549,
      "ĠØŃØ§Ø³ÙĪØ¨": 6550,
      "ĠÙħØ¹ÙĦÙĤØ©": 6551,
      "iple": 6552,
      "Ġfeed": 6553,
      "Ġnorm": 6554,
      "add": 6555,
      "theyre": 6556,
      "Ġinstit": 6557,
      "Ø§ÙĦØº": 6558,
      "Ġpill": 6559,
      "Ø«ÙĬÙĦ": 6560,
      "Ġstates": 6561,
      "list": 6562,
      "ĠEl": 6563,
      "Ġ12": 6564,
      "ĠØ¨Ø§ÙĦÙĥØ§ÙħÙĦ": 6565,
      "ĠØ§ÙĦØ±Ùĥ": 6566,
      "ĠØ¹Øµ": 6567,
      "ĠØ§ÙĦÙħÙĥØªØ¨": 6568,
      "ĠØ§ÙĦØŃØ¯Ø«": 6569,
      "ĠØ§ÙĦØ´Ø¨Ø§Ø¨": 6570,
      "ĠMary": 6571,
      "ĠØŃØ±ÙĥØ©": 6572,
      "ĠØ¬Ø§Ø¡": 6573,
      "Ġnewsp": 6574,
      "Ġexperience": 6575,
      "Ġgraph": 6576,
      "Ġrespons": 6577,
      "ĠØ£ØŃÙĬØ§ÙĨØ§": 6578,
      "arily": 6579,
      "Ġfurn": 6580,
      "ĠØ§ÙĦØªÙĦÙģØ²ÙĬ": 6581,
      "ĠÙĬØŃØ¨": 6582,
      "Ø·Ø±Ø©": 6583,
      "ĠØ§ÙĦÙħØ«": 6584,
      "ĠØ§ÙĦØ¬ÙĬØ´": 6585,
      "ĠØ§ÙĦØ·Ø±ÙĤ": 6586,
      "Ġdidn": 6587,
      "ĠÙĬØ¹Ø²Ùģ": 6588,
      "Ġlonger": 6589,
      "ops": 6590,
      "ĠØ§ÙĦÙĤÙħ": 6591,
      "ĠØ§ÙĦÙĦØŃ": 6592,
      "ĠØ§ÙĦÙħØ¯Ø§Ø±Ø³": 6593,
      "ological": 6594,
      "Please": 6595,
      "oid": 6596,
      "Ġsession": 6597,
      "Ġcivil": 6598,
      "ĠØŃØ±": 6599,
      "Ġprotest": 6600,
      "Ġpromot": 6601,
      "Ġtechnology": 6602,
      "za": 6603,
      "ØµØ§Øµ": 6604,
      "ĠØ§ÙĦØ¨ÙĦØ§Ø¯": 6605,
      "Ø±ÙĤØ§Ùħ": 6606,
      "Ġflat": 6607,
      "Ġactive": 6608,
      "ĠØ§ÙĦØ¶ÙĪØ¡": 6609,
      "bing": 6610,
      "ĠØ§ÙĦÙħØŃÙĥÙħØ©": 6611,
      "Ġ15": 6612,
      "Ġdinner": 6613,
      "Ġmirror": 6614,
      "aries": 6615,
      "Ġuniversity": 6616,
      "ĠØ§ÙĦÙĦØ¹Ø¨": 6617,
      "Ġarchitect": 6618,
      "ĠØ§ÙĦÙħÙĪØ¶ÙĪØ¹": 6619,
      "Ġchance": 6620,
      "ula": 6621,
      "ĠØ§ÙĦØ±Ø³ÙĪÙħ": 6622,
      "Ø§ÙĦØ¢ÙĨ": 6623,
      "ĠØ¬Ùħ": 6624,
      "ĠØ¹ÙĨÙĤ": 6625,
      "ĠØ§ÙĦØ¥ÙĨØ³": 6626,
      "see": 6627,
      "ocr": 6628,
      "Ġhello": 6629,
      "bon": 6630,
      "pper": 6631,
      "ĠØŃØ§ÙĦÙĥ": 6632,
      "Ġinterior": 6633,
      "Ġwebsite": 6634,
      "anta": 6635,
      "ÙħÙĨØ·ÙĤØ©": 6636,
      "ĠLake": 6637,
      "Ġmagazine": 6638,
      "Ġancient": 6639,
      "Ġcoast": 6640,
      "Ġdescribed": 6641,
      "ĠØ´ÙħØ³": 6642,
      "ĠØ±Ùģ": 6643,
      "Ø§Ø¦Ø±Ø§Øª": 6644,
      "ĠØ§ÙĦÙĤÙħØ±": 6645,
      "cks": 6646,
      "ÙĦÙĨØ¯Ø§": 6647,
      "Ġfollowed": 6648,
      "ĠØ§ÙĦØ¬ÙĨÙĪØ¨ÙĬØ©": 6649,
      "Ø¨ØºÙĬ": 6650,
      "Ø¥ÙĦÙī": 6651,
      "Ġadmin": 6652,
      "Ġ11": 6653,
      "Ġwheel": 6654,
      "ĠÙĬØ¹ØªØ¨Ø±": 6655,
      "Ø§ØµÙħØ©": 6656,
      "ĠØªØŃØ¯ÙĬØ¯": 6657,
      "ĠÙĥÙĬÙģÙĬØ©": 6658,
      "ÙħØ§Ø±Ø³Ø©": 6659,
      "ĠÙħÙĤØ¯": 6660,
      "ĠØ¨Ø¯Ø§ÙĬØ©": 6661,
      "ĠÙĪØµÙĦ": 6662,
      "ĠÙĪØºÙĬØ±": 6663,
      "ĠØ§ÙĦØ¨Ø±ÙĨØ§ÙħØ¬": 6664,
      "ÙĪÙĦÙĬÙĪ": 6665,
      "ĠØªØ±ÙĬØ¯ÙĬÙĨ": 6666,
      "ya": 6667,
      "ÙĦÙĬØ¯ÙĬ": 6668,
      "utions": 6669,
      "ĠØ°Ø§": 6670,
      "ĠØ§ÙĦØµØ®ÙĪØ±": 6671,
      "Ġgrew": 6672,
      "ĠÙĪØ¨Ø¹Ø¶": 6673,
      "undred": 6674,
      "ĠØ§Ø°ÙĩØ¨": 6675,
      "Ġinvolved": 6676,
      "ependent": 6677,
      "Ġsculpt": 6678,
      "Ġproducts": 6679,
      "Her": 6680,
      "Ø¹Ø§Ø¯": 6681,
      "ĠØ§ÙĦØ³ÙĪÙĤ": 6682,
      "ĠØ§ÙĦØ³Ø±ÙĬØ¹": 6683,
      "ĠØ¨Ø¹Ø¶ÙĩÙħØ§": 6684,
      "emetery": 6685,
      "Ġdang": 6686,
      "ĠÙĥØ£Ø³": 6687,
      "imin": 6688,
      "ĠØµØ¨ÙĬ": 6689,
      "ĠØ¯Ø¨": 6690,
      "Ø³ÙĥØ±ÙĬØ©": 6691,
      "dom": 6692,
      "ĠÙģØ§ÙĨ": 6693,
      "ĠØ§ÙĦÙħÙħØ«ÙĦ": 6694,
      "ĠØ£ÙĬÙĤ": 6695,
      "Ġbeds": 6696,
      "ĠØ§Ø²": 6697,
      "Ġtv": 6698,
      "ĠØ¨ÙĨÙĬØ©": 6699,
      "uments": 6700,
      "Ġrelig": 6701,
      "fact": 6702,
      "ĠØ¥Ø®": 6703,
      "Ġbeer": 6704,
      "ĠØ§ÙĦØªÙĦ": 6705,
      "ĠØ®Øµ": 6706,
      "ĠÙĦÙĦÙģ": 6707,
      "Ġexec": 6708,
      "ĠEx": 6709,
      "ĠØ§ÙĨØªÙĩ": 6710,
      "ĠØ§ÙĦØ£ØºØ§ÙĨÙĬ": 6711,
      "uary": 6712,
      "wait": 6713,
      "ĠØ£Ø¹Ø¯": 6714,
      "asing": 6715,
      "Ġdecl": 6716,
      "ĠØ³ÙĬØ§Ø±Ø§Øª": 6717,
      "aved": 6718,
      "ĠØ§ÙĦÙħØŃÙħ": 6719,
      "Ġsuccessful": 6720,
      "Ø·Ø§ÙĨ": 6721,
      "Ġlik": 6722,
      "Ġtax": 6723,
      "Ġchallenges": 6724,
      "Ġvintage": 6725,
      "ivity": 6726,
      "ĠØ±Ø³ÙħÙĬ": 6727,
      "Ġcred": 6728,
      "Ø§ÙħØ§Ùħ": 6729,
      "ĠØ³ÙĬØ¯Ø©": 6730,
      "ords": 6731,
      "Ġcommer": 6732,
      "ÙģØ±Ø©": 6733,
      "isions": 6734,
      "Ø£Ø¸ÙĨ": 6735,
      "Ø§Ø±Ø¶Ø©": 6736,
      "ĠØ±ÙģØ¶": 6737,
      "ĠØ§ÙĦØŃØ²Ø¨": 6738,
      "ĠØ°Ø§Ùĩ": 6739,
      "aker": 6740,
      "ĠØ§ØŃØª": 6741,
      "ĠØ§ÙĦØ´Ø±ÙĤÙĬ": 6742,
      "ĠØ±Ø¬Ø§Ø¡": 6743,
      "ĠØ£ØŃØªØ§Ø¬": 6744,
      "ĠÙħÙĦÙĬØ¡": 6745,
      "Ġdocument": 6746,
      "Ġfear": 6747,
      "ĠØ§ÙĦØ·Ø§Ø¦Ø±Ø©": 6748,
      "ĠÙĪÙĩ": 6749,
      "alt": 6750,
      "Ġsuc": 6751,
      "Ġdiag": 6752,
      "know": 6753,
      "ÙĨØ·": 6754,
      "ĠPlease": 6755,
      "iting": 6756,
      "ĠØ¨ÙĬØ³": 6757,
      "ĠØ¹Ø§ÙĦÙĬØ©": 6758,
      "Ġlog": 6759,
      "rawn": 6760,
      "Ø¯Ø§Ø®ÙĦ": 6761,
      "ĠÙĪØ±ÙĤ": 6762,
      "Ġnearby": 6763,
      "ĠØ¹Ø²ÙĬØ²ØªÙĬ": 6764,
      "ĠÙĨÙģØ¹ÙĦ": 6765,
      "ĠØ§ÙĦØªÙħ": 6766,
      "ĠÙĪØ£ÙĨØª": 6767,
      "Ġtypes": 6768,
      "Ø§ÙħØ§Øª": 6769,
      "Ġarmy": 6770,
      "ĠØªØ´Ø¹Ø±": 6771,
      "Ø¢Ø©": 6772,
      "Ø§Ø²Ùģ": 6773,
      "ube": 6774,
      "ĠØ®Ø·Ø£": 6775,
      "Ġsignificant": 6776,
      "ĠMy": 6777,
      "ĠØ¥ÙĨØ¬ÙĦØªØ±Ø§": 6778,
      "ÙģÙĬØ°": 6779,
      "Ġfeaturing": 6780,
      "ĠØ§ÙĦÙħÙĪØ³Ùħ": 6781,
      "Ġmessage": 6782,
      "Ġcatch": 6783,
      "ĠÙĬØ±Ùī": 6784,
      "Ġgas": 6785,
      "ĠPe": 6786,
      "burg": 6787,
      "Ġfell": 6788,
      "ĠØ§ÙĦØŃØ¯": 6789,
      "Ġselect": 6790,
      "acters": 6791,
      "ĠÙĪØ§Ø³Ø¹": 6792,
      "ÙĦØ§Ø¹": 6793,
      "ĠSu": 6794,
      "ĠØ§ÙĦØµØ¨Ø§ØŃ": 6795,
      "Ġgroups": 6796,
      "Ø§ÙĥÙħ": 6797,
      "ĠÙĬØ³ØªØ·ÙĬØ¹": 6798,
      "Ġstories": 6799,
      "Ġagre": 6800,
      "ĠÙħÙĪØ³ÙĬÙĤÙĬØ©": 6801,
      "ĠØ°ÙĩØ¨ÙĬ": 6802,
      "ÙĨÙģ": 6803,
      "ĠÙħÙĬØ¯": 6804,
      "ĠÙĪÙĦÙĬØ³": 6805,
      "ĠÙħÙĨÙģ": 6806,
      "Ġspl": 6807,
      "Ġprotect": 6808,
      "Ġbroad": 6809,
      "ients": 6810,
      "ÙĬÙĥÙĦ": 6811,
      "Ġran": 6812,
      "ÙĥØªØ§Ø¨": 6813,
      "ĠØ§ÙĦÙħÙĨØŃ": 6814,
      "Ġfeeling": 6815,
      "Ġaddition": 6816,
      "Ġdisplayed": 6817,
      "ÙĤØ°": 6818,
      "ĠÙĩØ¯Ùģ": 6819,
      "ÙĬÙĨÙĬØ§": 6820,
      "Ø±Ø§Ø³ÙĬ": 6821,
      "Ġdestroy": 6822,
      "Ġ*": 6823,
      "ĠØ§ÙģØª": 6824,
      "Ġattempt": 6825,
      "ĠØ§ÙĦÙħØ¶": 6826,
      "Ø´ØŃ": 6827,
      "Ġliter": 6828,
      "ware": 6829,
      "ĠØºØ±ÙĬØ¨": 6830,
      "atever": 6831,
      "ØªÙħÙĨÙī": 6832,
      "ĠØ§ÙĦØŃÙĥÙħ": 6833,
      "ĠØ§ÙĦØ¬Ø¯": 6834,
      "ĠMin": 6835,
      "ĠBo": 6836,
      "ĠGl": 6837,
      "ĠØªØ³ÙħÙī": 6838,
      "Ġpractice": 6839,
      "ÙģØ§Ø¡": 6840,
      "ĠÙĪØ´Ø®Øµ": 6841,
      "ĠØ§ÙĦØŃÙħØ§Ùħ": 6842,
      "Ġlived": 6843,
      "Ġdisapp": 6844,
      "ĠØªØ£ØªÙĬ": 6845,
      "Ġnote": 6846,
      "ĠÙħØªÙĨÙĪØ¹Ø©": 6847,
      "ĠÙĥØ§ÙĦÙĬÙģÙĪØ±ÙĨÙĬØ§": 6848,
      "Ġseems": 6849,
      "Ġsucceed": 6850,
      "ÙĪÙĩÙĬ": 6851,
      "ĠØªØ¶Ùħ": 6852,
      "Ġreact": 6853,
      "ĠØ£Ø±ÙĪØ¹": 6854,
      "edom": 6855,
      "ĠØ¬Ø¨Ø§ÙĦ": 6856,
      "ĠØ¨Ø§ÙĦÙģ": 6857,
      "ĠØ¥ÙĦÙĬÙĩØ§": 6858,
      "Ø²ÙĪØ¬Ø§ÙĨ": 6859,
      "Ġblogger": 6860,
      "ĠÙĪØªØŃ": 6861,
      "Ø§ÙĨØ¬": 6862,
      "ĠØ²ÙĬØ§": 6863,
      "Ø±Ø¬Ø§ÙĦ": 6864,
      "Ġquote": 6865,
      "fit": 6866,
      "ÙĨØ¯Ø§": 6867,
      "ÙģØ§Ø¹": 6868,
      "Ġrelease": 6869,
      "ĠØ¢ÙĦØ©": 6870,
      "ĠØ£ÙĦØ¹Ø§Ø¨": 6871,
      "ĠØ£ÙĨÙĨØ§": 6872,
      "ĠØ§ÙĦØªØ®": 6873,
      "ĠØ§ÙĦÙģÙĨ": 6874,
      "ĠNe": 6875,
      "ĠÙħÙĤØ§Ø¨ÙĦ": 6876,
      "ĠØ§ÙĦÙĤØ±ÙĨ": 6877,
      "ĠÙĤÙħØª": 6878,
      "Ø§Ø³Ùħ": 6879,
      "ÙĪØ§ÙĦÙĬ": 6880,
      "ĠØ¬Ø¯Ø±Ø§ÙĨ": 6881,
      "gel": 6882,
      "ights": 6883,
      "ĠØ¥ÙĨÙĩÙħ": 6884,
      "Ġstudent": 6885,
      "Ġthemselves": 6886,
      "ĠØ§ÙĦØ¬Ø²ÙĬØ±Ø©": 6887,
      "ĠØ¬Ø¯ÙĪÙĦ": 6888,
      "ils": 6889,
      "Ġcow": 6890,
      "ĠØ§ÙĦØ£ÙħØ§ÙĥÙĨ": 6891,
      "ĠEast": 6892,
      "Ġfinish": 6893,
      "ÙĬÙħÙĥÙĨÙĥ": 6894,
      "Ġtea": 6895,
      "ability": 6896,
      "Ġparts": 6897,
      "ĠØ§ÙĦØ£Ø®ÙĬØ±": 6898,
      "Ġentrance": 6899,
      "ĠØ£ÙģÙĩÙħ": 6900,
      "ĠÙĬØ³Ø§Ø¹Ø¯": 6901,
      "Ø±ÙĬØ§Øª": 6902,
      "Ġwel": 6903,
      "ĠØ§ÙĦØŃØ¸": 6904,
      "Ø±Ø£ØªØ§ÙĨ": 6905,
      "Ġsmart": 6906,
      "Ġgenerally": 6907,
      "ĠÙħØ¯Ùī": 6908,
      "Ø£Ø®Ø¨Ø±": 6909,
      "ĠØ§ÙĦØªØºÙĬÙĬØ±": 6910,
      "Ġfix": 6911,
      "Ġquiet": 6912,
      "pite": 6913,
      "heres": 6914,
      "ĠØ¨ÙĬÙĦ": 6915,
      "ĠØ§ÙĦÙħØ³ØªÙĤØ¨ÙĦ": 6916,
      "Ġfeatured": 6917,
      "ĠØ§ÙĦØŃØ¯ÙĬØ«Ø©": 6918,
      "Ø¯ÙĩØ§": 6919,
      "Ø®ØµØµ": 6920,
      "ugg": 6921,
      "Ġdirector": 6922,
      "Ø§ØªÙĬØŃ": 6923,
      "Ġsidewalk": 6924,
      "Ġprovide": 6925,
      "Ġsquare": 6926,
      "ØªØ¯": 6927,
      "ĠØ³ÙĥØ§ÙĨ": 6928,
      "ĠØ§ÙĦØ£ÙĤÙĦ": 6929,
      "Ġsource": 6930,
      "Ø¬ÙĪÙħ": 6931,
      "lder": 6932,
      "Ø¹Ø¨ÙĬØ±": 6933,
      "ĠØ¨Ø£ÙĨÙĩØ§": 6934,
      "ification": 6935,
      "Ġdro": 6936,
      "ÙĦÙĤØ§Ø¡": 6937,
      "Ġgolden": 6938,
      "Ġeventually": 6939,
      "yer": 6940,
      "ĠØ§ÙĦØ§Ø±": 6941,
      "ĠÙĬØ·ÙĦÙĤ": 6942,
      "Ø¶Ø±ÙĪØ§Øª": 6943,
      "stant": 6944,
      "Ġforward": 6945,
      "ĠØ§ÙĦØŃØ§ÙĦ": 6946,
      "ĠØ§ÙĦÙĨÙĪØ¹": 6947,
      "ÙħÙĪØ³ÙĬ": 6948,
      "ĠØ²ÙĪØ¬ØªÙĩ": 6949,
      "ussian": 6950,
      "ennis": 6951,
      "kin": 6952,
      "ĠØªÙĪÙģ": 6953,
      "ĠÙĤÙĬØ¯": 6954,
      "ĠÙĦÙĦØ·": 6955,
      "ĠÙħØµÙĨÙĪØ¹Ø©": 6956,
      "Ġplane": 6957,
      "Ġassist": 6958,
      "ĠØ§ÙĦØ§ÙħØ±": 6959,
      "ÙħØ¯": 6960,
      "ipal": 6961,
      "Ġlocation": 6962,
      "Ġreads": 6963,
      "Ġshopping": 6964,
      "ÙĦØ²": 6965,
      "ĠØ³ÙħÙĬ": 6966,
      "ĠÙĥØªØ§Ø¨Ø©": 6967,
      "ites": 6968,
      "Ø±Ø§Ø¹ÙĬ": 6969,
      "Ġsupposed": 6970,
      "Ġtables": 6971,
      "iny": 6972,
      "istan": 6973,
      "ĠØ§ÙĦÙĥØ±": 6974,
      "Ġlear": 6975,
      "ÙħÙĪØ±": 6976,
      "ÙĪÙĩØ§": 6977,
      "ĠØ¯Ø¹Ùħ": 6978,
      "Ġcharacters": 6979,
      "rica": 6980,
      "Ġopportunities": 6981,
      "Ġbicy": 6982,
      "ĠÙĪØ§Ø¨": 6983,
      "Ġedge": 6984,
      "Ġrecorded": 6985,
      "ĠØŃØ¯ÙĪØ¯": 6986,
      "Ġnature": 6987,
      "Ġsoci": 6988,
      "Ø§Ø´Ø±": 6989,
      "ĠÙħØ³ØªØ¹Ø¯": 6990,
      "Ġcolored": 6991,
      "ĠØ§Ø³ÙħÙĩ": 6992,
      "Ġrelax": 6993,
      "Ġcompanies": 6994,
      "iot": 6995,
      "Ġfresh": 6996,
      "Ġru": 6997,
      "Ġdeb": 6998,
      "eneral": 6999,
      "Ġchanges": 7000,
      "Ø¨ÙĪØ±": 7001,
      "ĠÙĪÙħØ§": 7002,
      "ĠÙģØ¹ÙĦÙĩ": 7003,
      "town": 7004,
      "Ġarticle": 7005,
      "Ø°Ø±Ø©": 7006,
      "ĠØ®Ø·Ø©": 7007,
      "Ġexhib": 7008,
      "Ġupon": 7009,
      "ĠÙĬÙħØª": 7010,
      "ĠØ¥ÙĦÙĬÙĥ": 7011,
      "Ġcostume": 7012,
      "ÙĬØªØ±": 7013,
      "ĠHow": 7014,
      "Ø£ÙĨÙĩØ§": 7015,
      "ĠØ§ÙĦØ¯ÙĪÙĦØ©": 7016,
      "cles": 7017,
      "Ġcontains": 7018,
      "ĠÙħØ³Ø§Ø¡": 7019,
      "ÙģÙĬØ©": 7020,
      "ares": 7021,
      "ĠÙĬÙħØ±": 7022,
      "chan": 7023,
      "ĠØ§ÙĦØ¯ÙĪÙĦÙĬØ©": 7024,
      "Ġelectric": 7025,
      "ĠÙĬØ±Ø§Ùħ": 7026,
      "ÙĥÙĥ": 7027,
      "Ġple": 7028,
      "ĠØ¹ÙĤØ¯": 7029,
      "enty": 7030,
      "idents": 7031,
      "Ġreported": 7032,
      "Ġlooked": 7033,
      "Ġexam": 7034,
      "Ø¨Ø§ÙĦØª": 7035,
      "Ġconcert": 7036,
      "ĠØ¥Ø·ÙĦØ§ÙĤ": 7037,
      "ĠAm": 7038,
      "ples": 7039,
      "ĠVal": 7040,
      "ees": 7041,
      "Ø§ÙĦÙĦ": 7042,
      "reg": 7043,
      "Ġmid": 7044,
      "ĠØ§ÙĦÙħØ±Ùĥ": 7045,
      "ĠØ³ÙĬØ±": 7046,
      "eaking": 7047,
      "ĠØ§ÙĦØºØ±Ø¨ÙĬØ©": 7048,
      "ĠØ§ÙĦØ£ÙħØ§Ùħ": 7049,
      "Ġposes": 7050,
      "Ġlanguages": 7051,
      "iced": 7052,
      "Ġearl": 7053,
      "eas": 7054,
      "Ø´ÙĪÙĨ": 7055,
      "ØºÙĪ": 7056,
      "Ø¸ÙĬÙģØ©": 7057,
      "ĠØ§ÙĦØ´Ø±ÙĥØ§Øª": 7058,
      "Ġpose": 7059,
      "ĠØ³Ø¨Ø§ØŃØ©": 7060,
      "Ø¨ÙĨÙĬ": 7061,
      "Ġmaster": 7062,
      "ĠIntern": 7063,
      "aj": 7064,
      "asons": 7065,
      "Ø¯ÙĬØ³": 7066,
      "ÙĪÙĦÙĬÙĨ": 7067,
      "Ø¨Ø±Ùī": 7068,
      "Ġoffer": 7069,
      "Ġstructure": 7070,
      "ĠÙĤØ±ÙĬØ¨Ø§": 7071,
      "ĠØ§ÙĦØŃÙĬÙĨ": 7072,
      "though": 7073,
      "ĠHouse": 7074,
      "ĠEn": 7075,
      "ĠØªÙĨÙħÙĪ": 7076,
      "Ġeverybody": 7077,
      "Ġ2020": 7078,
      "Ø§Ø±ÙĬØ§Øª": 7079,
      "Ġcentral": 7080,
      "ĠØ§ÙĦÙħØ±ØŃ": 7081,
      "ĠØ§ÙĦØ£Ùģ": 7082,
      "every": 7083,
      "ĠÙħÙĪØ³": 7084,
      "esus": 7085,
      "ĠØŃØµ": 7086,
      "ĠØ±Ø¦ÙĬØ³ÙĬ": 7087,
      "Ġvan": 7088,
      "iving": 7089,
      "Ø§Ø±ÙĬØ¹": 7090,
      "Ġpoor": 7091,
      "ĠØ¹Ø¶ÙĪ": 7092,
      "ÙĥÙĪÙħ": 7093,
      "ÙĬÙģØ±": 7094,
      "Ġneeded": 7095,
      "ĠØ¨Ø·Ø§ÙĤØ©": 7096,
      "Ø®Ø±Ø§": 7097,
      "ĠØ³ØªØ¬Ø¯": 7098,
      "ĠØ±Ø¬ÙĦØ§ÙĨ": 7099,
      "ĠÙĨÙĤØ·Ø©": 7100,
      "Ġslee": 7101,
      "Ø«Ø§Ø±": 7102,
      "Ġforce": 7103,
      "ĠØ¹ÙĨÙĥ": 7104,
      "ÙĤØ§Ø·": 7105,
      "ĠØ§ÙĦÙħØ³Ø§Ø¹Ø¯Ø©": 7106,
      "ĠÙĥØ«": 7107,
      "Ġisol": 7108,
      "Ġgets": 7109,
      "ĠÙģØ§Ø±ØºØ©": 7110,
      "sequently": 7111,
      "ĠÙħÙĩÙħØ©": 7112,
      "ĠComp": 7113,
      "ĠØ§ÙĦÙģÙĥØ±Ø©": 7114,
      "ĠÙĦÙĩØ°Ùĩ": 7115,
      "Ġfinished": 7116,
      "ĠÙĬÙĩÙħ": 7117,
      "ĠÙħØ¹Ø·Ùģ": 7118,
      "Ġtracks": 7119,
      "Ġmass": 7120,
      "bye": 7121,
      "Ġoriginally": 7122,
      "ios": 7123,
      "ÙĤØ·Ø©": 7124,
      "ĠØ£Ø±Ø¯Øª": 7125,
      "Ġmention": 7126,
      "Ġpants": 7127,
      "ĠÙĤÙĪØ³": 7128,
      "ĠØ§ÙĦØ´ÙħØ§ÙĦ": 7129,
      "Ġhandle": 7130,
      "ibility": 7131,
      "During": 7132,
      "because": 7133,
      "case": 7134,
      "ĠØ§ÙĦÙħØ±Ø©": 7135,
      "ĠØŃØ¸": 7136,
      "Ġgiving": 7137,
      "Ø¨Ø§Ø¡": 7138,
      "ĠØ¹ÙĨÙĩØ§": 7139,
      "ĠMany": 7140,
      "ĠPres": 7141,
      "ued": 7142,
      "Ø£ÙĪ": 7143,
      "ĠØ§ÙĦØ³Ø¬ÙĨ": 7144,
      "ĠØ§ÙĦØ®Ø¯ÙħØ©": 7145,
      "ĠØ¹ÙħÙĦÙĬØ§Øª": 7146,
      "ĠØ§ÙĦÙħÙĩÙĨÙĬØ©": 7147,
      "Ġmotorcy": 7148,
      "Ġsick": 7149,
      "icking": 7150,
      "Ġweap": 7151,
      "Ø´Ø¨Ùĩ": 7152,
      "ĠØ¥Ø·Ø§Ø±": 7153,
      "ÙħÙĪØ§Ø¬": 7154,
      "ĠØ¢Ø³ÙģØ©": 7155,
      "ÙĪØ§Ø¬ÙĩØ©": 7156,
      "ĠÙħÙħÙĦÙĪØ¡": 7157,
      "ograph": 7158,
      "ĠÙĦØ¨Ø¹Ø¶": 7159,
      "Ø´ÙĥÙĦ": 7160,
      "ÙĩØ§Ø¯": 7161,
      "Ġlock": 7162,
      "ÙĦÙĪÙī": 7163,
      "mission": 7164,
      "ØŃÙħØ§Ùħ": 7165,
      "Ġlibrary": 7166,
      "Ġsense": 7167,
      "ĠØ¹ÙĨÙĪØ§ÙĨ": 7168,
      "ĠØ¥ÙĨØ´Ø§Ø¡": 7169,
      "rael": 7170,
      "ÙĪÙĥØ¨": 7171,
      "Ġlandscape": 7172,
      "ØŃØµÙĦ": 7173,
      "ĠØ¹ÙĦØ§ÙĤØ©": 7174,
      "ĠØ§ÙĦÙħÙħØ±": 7175,
      "Ø®Ø±ÙĬ": 7176,
      "ĠØ«ÙĤ": 7177,
      "Ġanymore": 7178,
      "Ġtravel": 7179,
      "ĠÙĨØ§Ø±ÙĬØ©": 7180,
      "ÙĪÙħØ§ÙĨ": 7181,
      "Ġyours": 7182,
      "Ġdrinking": 7183,
      "stract": 7184,
      "water": 7185,
      "lly": 7186,
      "Ġdoors": 7187,
      "ĠØ§ÙĦØ¬ÙĨØ³": 7188,
      "ĠØªØ´Ø§Ø±": 7189,
      "ĠÙĪØ¬Ø¯Øª": 7190,
      "Ġeth": 7191,
      "Ø£Ø±Ø¬": 7192,
      "Ġitself": 7193,
      "upid": 7194,
      "Ġstudied": 7195,
      "rican": 7196,
      "iamond": 7197,
      "Ġver": 7198,
      "ĠØ§ÙĦØ§Ø«": 7199,
      "ĠØ£ÙĩØ¯Ø§Ùģ": 7200,
      "ĠØ³ÙĨØª": 7201,
      "eech": 7202,
      "Ġaddress": 7203,
      "Ġdecorated": 7204,
      "iture": 7205,
      "ĠØŃÙĥÙħ": 7206,
      "ĠØ§ÙĦØ´ÙĪÙĥ": 7207,
      "ĠØ§ÙĦØµÙĬÙģ": 7208,
      "rs": 7209,
      "athe": 7210,
      "ipe": 7211,
      "ĠØ¸ÙĦ": 7212,
      "Ġsounds": 7213,
      "inct": 7214,
      "ĠØ¨Ø§ÙĦØ·": 7215,
      "orses": 7216,
      "Ġmusical": 7217,
      "ĠÙħÙĩÙĦØ§": 7218,
      "put": 7219,
      "Ø¯Ø±Ø§": 7220,
      "ĠØ§ÙĦØ¹Ø±ÙĪØ³": 7221,
      "Ġplastic": 7222,
      "Ġcompl": 7223,
      "fort": 7224,
      "ĠØªÙĪØ±": 7225,
      "ĠEarth": 7226,
      "ĠNo": 7227,
      "Ġproduc": 7228,
      "Ġdamn": 7229,
      "ÙĤØ§Ø°": 7230,
      "ĠØ¹Ø¸ÙĬÙħ": 7231,
      "ĠÙĨÙĩ": 7232,
      "Ġtraff": 7233,
      "ÙħÙĨØŃ": 7234,
      "ĠÙħØ²Ø¯": 7235,
      "Ġpopulation": 7236,
      "ĠØ¨ÙĬØ¯": 7237,
      "Ġlots": 7238,
      "Ø´Ùī": 7239,
      "ĠØ³ÙĨØ©": 7240,
      "Ġris": 7241,
      "olic": 7242,
      "pecially": 7243,
      "ĠØµÙĨØ¹": 7244,
      "Ġcontinuous": 7245,
      "bby": 7246,
      "ÙĦØ°Ø§": 7247,
      "ÙĪÙĩÙĪ": 7248,
      "ÙĥØ¯": 7249,
      "ĠÙħØ§Ø¡": 7250,
      "ĠØ§ÙĦÙĦØ¹ÙĨØ©": 7251,
      "ucted": 7252,
      "ĠÙħØ³Ø§Ø±": 7253,
      "ĠØ§ÙĦÙĩØ¯Ùģ": 7254,
      "apped": 7255,
      "ĠÙĦØªØŃÙĤÙĬÙĤ": 7256,
      "ÙħØ¨Ø±Ø§Ø·": 7257,
      "Ø¸Ø§Ø±Ø§Øª": 7258,
      "ĠSte": 7259,
      "ĠØªØ¬Ø¹ÙĦ": 7260,
      "have": 7261,
      "Ġbattle": 7262,
      "Ø§Ø¨Ø§": 7263,
      "ĠØ§ÙĦØ«Ø§ÙĦØ«": 7264,
      "ÙĬØ¹Ø¯": 7265,
      "Ġbeg": 7266,
      "Ġchoice": 7267,
      "dr": 7268,
      "iber": 7269,
      "ÙĪØ°Ø©": 7270,
      "ĠÙħØ·Ø¨Ø®": 7271,
      "ĠØ§ÙĦÙĤÙĬØ§Ø¯Ø©": 7272,
      "Ġphotography": 7273,
      "ĠÙĬÙĥÙģÙĬ": 7274,
      "ĠÙħØ«ÙĬØ±": 7275,
      "ĠØ£Ø®Ø±Ø¬": 7276,
      "ÙħÙĬÙĦØ©": 7277,
      "olit": 7278,
      "Ø¯ÙĤØ§Ø¡": 7279,
      "Ġlearning": 7280,
      "fall": 7281,
      "Ø§ØªØ¨": 7282,
      "iger": 7283,
      "Ġappears": 7284,
      "ĠØ¥ØŃØ¯Ùī": 7285,
      "ĠÙ": 7286,
      "ĠHall": 7287,
      "Ġbuy": 7288,
      "igned": 7289,
      "ĠØ§ÙĦÙħØ´ÙĥÙĦØ©": 7290,
      "ĠØ£Ø±Ø³ÙĦ": 7291,
      "Ġinnov": 7292,
      "Ø¨Ø±Ø§": 7293,
      "Ø£Ø´Ø¹Ø±": 7294,
      "ĠØ§ÙĦØ³ÙĨØ©": 7295,
      "ĠØ§ÙĨØªØ®": 7296,
      "Ġinj": 7297,
      "ÙĬÙĨÙĩ": 7298,
      "Ġumb": 7299,
      "ĠÙħØ¬ØªÙħØ¹": 7300,
      "ĠÙĬØ¹Ø±Ø¶": 7301,
      "Ø¨ØªØ©": 7302,
      "ÙģÙī": 7303,
      "ĠÙħØ¹ÙĬØ´": 7304,
      "uses": 7305,
      "Ġmostly": 7306,
      "ĠØ¨Ø§ÙĦÙĦØºØ©": 7307,
      "ipped": 7308,
      "ĠØ³Ø§Ø¨ÙĤØ§": 7309,
      "ĠÙħØ«Ø§ÙĦ": 7310,
      "ĠØªØ£Ø«ÙĬØ±": 7311,
      "ÙģÙĬØ¯": 7312,
      "ĠØ§ÙĦÙħØ¸": 7313,
      "Ġshare": 7314,
      "ĠØ§ÙĦØ´Ø¹Ø±": 7315,
      "Ø§Ø¯ÙĬØ©": 7316,
      "ify": 7317,
      "ĠØ§Ø±ÙĬØ¯": 7318,
      "Ġhonor": 7319,
      "Ġneighbor": 7320,
      "ÙĤÙĦÙĬÙħ": 7321,
      "Ġfif": 7322,
      "ĠØ§ÙĦØ·Ø§ÙĤØ©": 7323,
      "ĠÙģØµÙĦ": 7324,
      "ĠÙģÙĨØ§ÙĨ": 7325,
      "ÙĬØ±Øª": 7326,
      "Ġride": 7327,
      "andon": 7328,
      "ÙĪÙĬÙĦØ§": 7329,
      "ĠRec": 7330,
      "Ġamazing": 7331,
      "Ġlegs": 7332,
      "Ġorganiz": 7333,
      "Ø³ÙĬÙĥÙĬØ©": 7334,
      "ĠØ§ÙĦØ¬ÙħÙĩÙĪØ±": 7335,
      "ores": 7336,
      "Ġbene": 7337,
      "ĠØ¨ÙĩÙħ": 7338,
      "ĠØ§ÙĦØ®Ø§Ùħ": 7339,
      "ÙĨØ¬Ø§ØŃ": 7340,
      "ergy": 7341,
      "when": 7342,
      "Ġcircle": 7343,
      "ĠCanada": 7344,
      "ĠØ§ÙĦØ£ØµÙĦÙĬØ©": 7345,
      "Ġdrawn": 7346,
      "Ġalive": 7347,
      "ĠØ§Ø¨ÙĨØª": 7348,
      "Ġsweater": 7349,
      "ĠØ§ÙĦØ³ØŃ": 7350,
      "iel": 7351,
      "ĠØ§ÙĦÙģØ¶Ø§Ø¡": 7352,
      "Ø²ÙĬØ²ÙĬ": 7353,
      "Ġweeks": 7354,
      "Ġcalm": 7355,
      "ĠØ¨Ø§ÙĦØ¥Ø¶Ø§ÙģØ©": 7356,
      "Ġjumping": 7357,
      "reet": 7358,
      "rect": 7359,
      "Ġdigital": 7360,
      "ki": 7361,
      "ĠØ¹ÙħØ±": 7362,
      "ĠØ§ÙĦÙħØ±Øª": 7363,
      "ĠØ§ÙĦØ¨ÙĨØ§Ø¡": 7364,
      "Ġrespect": 7365,
      "Other": 7366,
      "van": 7367,
      "ĠØ§ÙĦØ³Øª": 7368,
      "âĢĺ": 7369,
      "ĠØ§ÙĦØ¹ÙħÙĦÙĬØ©": 7370,
      "ĠÙĬØ´ÙĬØ±": 7371,
      "Ø³Ùī": 7372,
      "ĠØ³Ø¨ÙĬÙĦ": 7373,
      "ĠÙĤØ·Ø§Ø±": 7374,
      "ĠØ§ÙĦÙģÙĨØ§ÙĨ": 7375,
      "ĠFl": 7376,
      "ĠØ¶Ø±Ø¨": 7377,
      "ĠÙĬØ¨ØªØ³Ùħ": 7378,
      "Ø·ÙĪØ±": 7379,
      "Ġdeck": 7380,
      "Ġwrite": 7381,
      "ĠÙģØ§Ø±Øº": 7382,
      "Ġachieves": 7383,
      "ĠØ¨Ø¥ÙħÙĥØ§ÙĨÙĨØ§": 7384,
      "ÙĪÙĨØ¯": 7385,
      "ĠØ±ÙħØ²": 7386,
      "ĠÙħØ¹Ø¯ÙĨÙĬØ©": 7387,
      "Ġchicken": 7388,
      "ĠØªØ³Ø§Ø¹Ø¯": 7389,
      "Ġpred": 7390,
      "ĠØ§ÙĦØ¯ÙĪÙĦÙĬ": 7391,
      "Ø§ØºÙĪ": 7392,
      "Ġsinger": 7393,
      "Ø±ÙĪÙģÙĪÙĨ": 7394,
      "ĠØ£Ø±ÙĬÙĥØ©": 7395,
      "ĠØ¨Ø§ÙĦØ¬": 7396,
      "rial": 7397,
      "ĠØºØ§Ø¨Ø©": 7398,
      "ĠØºØ·Ø§Ø¡": 7399,
      "Ġumbrell": 7400,
      "ĠØ£Ø®Øª": 7401,
      "ĠØŃØ§Ø¦Ø·": 7402,
      "Ġcoach": 7403,
      "ĠÙĬØ£ØªÙĬ": 7404,
      "ĠÙĬØ°ÙĩØ¨": 7405,
      "ĠØ§ÙĦØ£Ø³Ø¨ÙĪØ¹": 7406,
      "ÙĦÙħØ§ÙĨ": 7407,
      "ĠGo": 7408,
      "ĠÙħØŃÙĦ": 7409,
      "ugust": 7410,
      "ĠÙħØ§ÙĦØ°ÙĬ": 7411,
      "Ġsilhouette": 7412,
      "ĠØ§ÙĦØ´ØªØ§Ø¡": 7413,
      "aid": 7414,
      "Ġcong": 7415,
      "ĠØ¨ØµÙĪØ±Ø©": 7416,
      "Ġder": 7417,
      "ĠØ§ÙĦÙĤÙĦ": 7418,
      "ĠØ§ÙĦÙģØªØ±Ø©": 7419,
      "Ġsleeping": 7420,
      "ĠÙħØ·Ø§Ø±": 7421,
      "ĠÙħØ¹ÙĩØ§": 7422,
      "ĠÙħØŃØ§Ø·": 7423,
      "ĠØ§Ø®ØªÙĬØ§Ø±": 7424,
      "ÙģØ±ÙĤØ©": 7425,
      "ĠÙĨØ¸Ø±Ø©": 7426,
      "ÙĬÙĦÙĬ": 7427,
      "ĠØ§ÙĦØ£ÙĪØ±": 7428,
      "ĠØ£Ø¹ÙĨÙĬ": 7429,
      "Ġremained": 7430,
      "Ġmarch": 7431,
      "Ġopening": 7432,
      "ĠÙģØ§Ø²": 7433,
      "ÙĬÙĨÙĪ": 7434,
      "ĠÙĪØ§ÙĦØ¯Ùĩ": 7435,
      "Ø¹ÙĦØ§ÙħØ©": 7436,
      "quart": 7437,
      "ĠÙħØ¯ÙĪÙĨØ©": 7438,
      "Ġcomplex": 7439,
      "oom": 7440,
      "Ø¨ÙĦÙĬ": 7441,
      "ĠÙģÙĬÙĦ": 7442,
      "Ġhundred": 7443,
      "ĠØ³ÙģÙĬÙĨØ©": 7444,
      "ĠWhen": 7445,
      "ĠØ£Ø·ÙĦÙĤ": 7446,
      "ĠØ£Ø³ÙĦÙĪØ¨": 7447,
      "ĠÙģØªÙī": 7448,
      "ĠÙĨØ¹ÙĬØ´": 7449,
      "ĠØ§ÙĦØ¬ÙħÙĦØ©": 7450,
      "Ġimmedi": 7451,
      "ĠÙħØªØ²ÙĪØ¬": 7452,
      "Ġcarrying": 7453,
      "Ġepis": 7454,
      "ĠØ§ÙĦØŃØ¯ÙĪØ¯": 7455,
      "Ġjapan": 7456,
      "Ø¦ÙĬØ©": 7457,
      "ĠÙħØµÙĨÙĪØ¹": 7458,
      "Ġdefin": 7459,
      "ĠÙĨØ³Ø®Ø©": 7460,
      "known": 7461,
      "ÙĤÙĦØ©": 7462,
      "Ġgym": 7463,
      "Ġconcern": 7464,
      "Ġorganization": 7465,
      "take": 7466,
      "ĠÙĤÙĪÙĬØ©": 7467,
      "ĠØ§ÙĦØŃØ¶": 7468,
      "ĠØ§ÙĦØ¨Ø´Ø±": 7469,
      "ĠØ§ÙĦÙĥÙĦØ§": 7470,
      "ĠMus": 7471,
      "Ġoccas": 7472,
      "ÙħØ¨ÙĨÙī": 7473,
      "ÙĥÙĩ": 7474,
      "erc": 7475,
      "ØµÙĦØ©": 7476,
      "ĠØ´Ø§Ø´Ø©": 7477,
      "ÙĪØ§Ø¯ÙĬ": 7478,
      "apes": 7479,
      "ÙĦÙģØ©": 7480,
      "Ø³ÙĦØ§Ùħ": 7481,
      "Ġsink": 7482,
      "Ġcouncil": 7483,
      "ĠØ¹Ø´": 7484,
      "ĠØ¥Ø³": 7485,
      "ÙĥÙĨÙĪÙĦÙĪØ¬ÙĬØ§": 7486,
      "ĠØ§ÙĦØ³ÙĬÙĨ": 7487,
      "ĠØ£Ø³ÙĩÙħ": 7488,
      "Ġquestions": 7489,
      "ĠÙħØªØ¹Ø¯Ø¯Ø©": 7490,
      "ĠØ£Ø³Ø¨ÙĪØ¹": 7491,
      "ĠØ¨ÙģØ¶ÙĦ": 7492,
      "Ġspeech": 7493,
      "ĠØ¢ÙĨ": 7494,
      "Ġdetails": 7495,
      "ÙģÙĪ": 7496,
      "ittee": 7497,
      "ĠØ£ÙĪØ¯": 7498,
      "Ġstra": 7499,
      "Ø±Ø§ÙĤØ¨": 7500,
      "Ġadvert": 7501,
      "Ġ18": 7502,
      "Ġstupid": 7503,
      "ĠØ§ÙĦÙĨØ¨Ø§ØªØ§Øª": 7504,
      "ĠØ£ÙħØ±ÙĬÙĥØ§": 7505,
      "ĠÙĬØŃØ§ÙĪÙĦ": 7506,
      "Ġstudy": 7507,
      "Ġforeground": 7508,
      "Ġjoined": 7509,
      "Ġoccur": 7510,
      "Ø§ÙĨØ¸Ø±": 7511,
      "Ġweve": 7512,
      "ĠÙĪØ§ÙĦØµ": 7513,
      "ĠØ²ÙĩÙĪØ±": 7514,
      "ĠØ®Ø·ÙĪØ·": 7515,
      "Ġoppos": 7516,
      "west": 7517,
      "Ġarent": 7518,
      "ĠØªØ¹ÙĬØ´": 7519,
      "ĠØ§ÙĦØ§Ø®Øª": 7520,
      "Ø§ÙħØ±": 7521,
      "ĠØ·Ø§Ø¦Ø±": 7522,
      "Ġexcuse": 7523,
      "Ġbeat": 7524,
      "ĠØ§ÙĦÙĤØ·Ø§Ø±": 7525,
      "ĠÙĬÙĤÙģØ²": 7526,
      "Ġsinging": 7527,
      "Ġtarget": 7528,
      "ØªØ±ÙĬ": 7529,
      "Ġstadium": 7530,
      "Ġ2019": 7531,
      "Ġkidd": 7532,
      "ÙħÙĪØ¹": 7533,
      "ĠØ§ÙĦÙħØ³Ø§ÙģØ©": 7534,
      "Ġanal": 7535,
      "ĠØ¥Ø¬Ø±Ø§Ø¡": 7536,
      "ĠÙĥÙĨØ¯Ø§": 7537,
      "ÙĥÙħÙĦ": 7538,
      "ĠÙĪØ£ÙĨ": 7539,
      "ÙĩØ±ÙĬØ©": 7540,
      "ĠØ³ÙĬØ§Ø±": 7541,
      "âĢĿ": 7542,
      "ĠØ§Ø®Ø±": 7543,
      "han": 7544,
      "Ø§ÙĨÙĤ": 7545,
      "ĠØ¨Ø§ÙĦØ´": 7546,
      "Ġdear": 7547,
      "ÙĦØªÙĥ": 7548,
      "Ġteams": 7549,
      "Ġterri": 7550,
      "Ġofficer": 7551,
      "Ġfishing": 7552,
      "ĠÙĪØ§Ø³Øª": 7553,
      "ĠÙĦÙĦØ¹ÙħÙĦ": 7554,
      "ĠØ§ÙĦØ£ÙħØ§ÙħÙĬ": 7555,
      "Ġfault": 7556,
      "ĠØªØ°ÙĥØ±": 7557,
      "ØºØ±ÙĤ": 7558,
      "Ġamb": 7559,
      "ĠÙħØ¯ÙĬØ±": 7560,
      "Ġinvestig": 7561,
      "Ġmillion": 7562,
      "ÙħØŃ": 7563,
      "atre": 7564,
      "Ø²Ø§Ø¡": 7565,
      "ĠØ§ÙĦØ¹ÙĬØ´": 7566,
      "ĠØ®Ø¯ÙħØ§Øª": 7567,
      "Ġteach": 7568,
      "Ġsmo": 7569,
      "Ġmanagement": 7570,
      "ĠAb": 7571,
      "ĠØ§ÙĦØ¨Ø¯": 7572,
      "Ø¹ÙĦÙĨ": 7573,
      "Ø¬Ø¨Ø§ÙĦ": 7574,
      "Ġfurniture": 7575,
      "ÙĦÙĪØ§ÙĨ": 7576,
      "Ġcry": 7577,
      "ĠÙĩØ§Ø¯": 7578,
      "ĠÙĤØ§Ø¹Ø©": 7579,
      "ript": 7580,
      "ĠMed": 7581,
      "ĠØ§ÙĦØ®Ø±ÙĬÙģ": 7582,
      "Ø§Ø±ÙĬÙĪ": 7583,
      "ĠØ¨Ø´Ø¯Ø©": 7584,
      "Ġpurp": 7585,
      "Ø¯ÙĬÙĩØ§": 7586,
      "ĠØ¨Ø§ÙĦØº": 7587,
      "oday": 7588,
      "Ġowned": 7589,
      "ĠØµÙģØŃØ©": 7590,
      "Ġsticker": 7591,
      "ĠPhil": 7592,
      "Ġfelt": 7593,
      "ĠØ§ÙĦØ¬ÙħØ§": 7594,
      "ĠØ§ÙĦÙĤÙĦØ¨": 7595,
      "ĠÙĬØ³ÙħÙī": 7596,
      "Ġadministr": 7597,
      "Ġjohn": 7598,
      "ĠØ§ÙĦÙĤØµØ©": 7599,
      "ĠØ²ÙĬØ§Ø¯Ø©": 7600,
      "ĠÙĦÙĬÙĦØ§": 7601,
      "iverse": 7602,
      "Ġfreedom": 7603,
      "Ġtraffic": 7604,
      "ÙĦØ·": 7605,
      "ÙĤØ§Ø¯": 7606,
      "ĠÙĦØº": 7607,
      "ĠØ¨Ø·Ø±ÙĬÙĤØ©": 7608,
      "Ġbitch": 7609,
      "ĠØ¹Ø§ÙħØ©": 7610,
      "ĠØ±ØŃ": 7611,
      "Ġshore": 7612,
      "ĠØ¯Ø±Ø¬Ø©": 7613,
      "ÙĨØ³ÙĬ": 7614,
      "ØŃØªÙī": 7615,
      "ĠÙħØºØ·Ùī": 7616,
      "ĠØ¯Ø§ÙĥÙĨ": 7617,
      "ĠØ§ÙĦØ«ÙĦØ§Ø«Ø©": 7618,
      "Ġadop": 7619,
      "ÙĥØ±Ø§Ø³ÙĬ": 7620,
      "ĠØ£Ø³ØªØ±Ø§ÙĦÙĬØ§": 7621,
      "ams": 7622,
      "sec": 7623,
      "ĠÙĦÙĦØ³ÙĬ": 7624,
      "ĠØºØ±Ùģ": 7625,
      "Ġblond": 7626,
      "ĠØ¨Ø£ÙĨÙĥ": 7627,
      "ĠØ±Ø£ÙĬÙĥ": 7628,
      "Ø£ØªÙĬ": 7629,
      "ĠØ³ÙĪ": 7630,
      "roll": 7631,
      "ĠØ§ÙĦØ¨ÙĤØ§Ø¡": 7632,
      "Ġperformed": 7633,
      "ĠØªØ¯Ø±ÙĬØ¨": 7634,
      "iament": 7635,
      "Ġpieces": 7636,
      "Ġpalm": 7637,
      "ĠØ§ÙĦÙĬØ§Ø¨Ø§ÙĨ": 7638,
      "Ġmicrophone": 7639,
      "ĠØ§ÙĦÙĪØ³Ø·Ùī": 7640,
      "ĠØªØ¶Ø¹": 7641,
      "ĠÙħÙĨØ¸ÙħØ©": 7642,
      "ĠØ§ÙĦØªØ±Ùĥ": 7643,
      "Ġchinese": 7644,
      "ĠMe": 7645,
      "ÙģØ³ÙĬ": 7646,
      "aming": 7647,
      "ĠØ§ÙĦØ³Ø¨Ø§ÙĤ": 7648,
      "Ø¹ØªÙĩ": 7649,
      "ĠÙĪØ§ÙĦØ£Ø¨ÙĬØ¶": 7650,
      "ĠØ¯ÙĪÙĦØ§Ø±": 7651,
      "color": 7652,
      "lt": 7653,
      "Ġir": 7654,
      "Ġabstract": 7655,
      "ĠØ´Ø±Ø·Ø©": 7656,
      "ØªÙĩØ±": 7657,
      "omas": 7658,
      "ÙĦØ§Ø¯Ø©": 7659,
      "ĠØ¯ÙĬÙĨ": 7660,
      "Ø±ÙĪÙĬØ¬": 7661,
      "Ġimm": 7662,
      "Ġrecent": 7663,
      "Ġmedical": 7664,
      "ĠÙĨÙģØ³ÙĬ": 7665,
      "Ġreferred": 7666,
      "ĠØ¹Ø¬ÙĪØ²": 7667,
      "ÙĨØ§ÙģØ³": 7668,
      "ĠØ®Ø°": 7669,
      "ĠØ§ÙĦÙĨØ¨ÙĬØ°": 7670,
      "Ġcouldnt": 7671,
      "ĠØ§ÙĦØ¥ÙĨØªØ§Ø¬": 7672,
      "ĠØ°ÙĩØ¨Øª": 7673,
      "ÙģØ§Ø¸": 7674,
      "Ø¬ÙħØ¹": 7675,
      "ĠÙĥÙĪØ±": 7676,
      "ĠØŃØ§ÙģØ©": 7677,
      "ĠMor": 7678,
      "Ġfeet": 7679,
      "Ġisolated": 7680,
      "Ø±Ø®": 7681,
      "onstr": 7682,
      "ĠÙĦØºØ©": 7683,
      "ĠÙĬØµØ¨ØŃ": 7684,
      "Ø§Ø¬Ùħ": 7685,
      "Ġfeature": 7686,
      "Most": 7687,
      "Ġnick": 7688,
      "ĠSm": 7689,
      "ĠØ¨Ø£ÙĬ": 7690,
      "Ġstreets": 7691,
      "Ġfacebook": 7692,
      "ĠÙĦÙģØªØ±Ø©": 7693,
      "ĠØ§ÙĦÙĪØ¶Ø¹": 7694,
      "ĠØ£Ø¯Ø§Ø¡": 7695,
      "ashing": 7696,
      "ĠØ³ÙĪÙī": 7697,
      "iled": 7698,
      "ĠØ§ÙĦØŃÙĦ": 7699,
      "Ġspecific": 7700,
      "ĠØ±Ø³ÙĪÙħ": 7701,
      "Ġbeginning": 7702,
      "ĠØ§ÙĦÙħØ·Ø±": 7703,
      "Ø³ÙĬÙħ": 7704,
      "ĠØºØ§Ø¶": 7705,
      "Ø¯Ø§ÙģØ¹": 7706,
      "ĠÙħØŃØ§Ø·Ø©": 7707,
      "Ø·Ø¨ÙĤ": 7708,
      "ĠØ§Ø¹Ø±Ùģ": 7709,
      "glasses": 7710,
      "Un": 7711,
      "ĠØ¨Ø§Ùĥ": 7712,
      "ĠØ§ÙĦÙħØ·Ø§Ø±": 7713,
      "Ġhero": 7714,
      "Ġrid": 7715,
      "ĠØªØ´ÙĬØ±": 7716,
      "ĠØ§ÙĦØµØŃØ±Ø§Ø¡": 7717,
      "yard": 7718,
      "ĠØ£Ø²ÙĩØ§Ø±": 7719,
      "ĠØªØ¸ÙĨ": 7720,
      "ĠØªÙĨØ§ÙĪÙĦ": 7721,
      "Ġath": 7722,
      "ĠØ§ÙĦØ¬Ø¯Ø§Ø±": 7723,
      "Ġnecess": 7724,
      "ĠØ§ÙĦØ±ÙĤÙħ": 7725,
      "Ġcontinue": 7726,
      "ĠÙħØ¬ÙĦØ©": 7727,
      "ĠØ§ÙĦØ³ÙģØ±": 7728,
      "ÙħØ±Ø§Ø±": 7729,
      "Ġespecially": 7730,
      "hold": 7731,
      "ØªØ³": 7732,
      "ĠØ§ÙĦØ´Ø¬Ø±Ø©": 7733,
      "Ġplans": 7734,
      "Ø¶Ø§Ø¡Ø©": 7735,
      "ØºØ·ÙĬØ©": 7736,
      "ĠØ§ÙĦØ±Ø¨": 7737,
      "ĠÙĥØ§ÙħÙĦ": 7738,
      "ĠÙĤØ§ÙĦØª": 7739,
      "ĠØ£ÙĪØ±ÙĪØ¨Ø§": 7740,
      "ĠØ§ÙĦÙħÙĦÙĥÙĬØ©": 7741,
      "tt": 7742,
      "ĠÙĪØ¯": 7743,
      "alian": 7744,
      "Ø®Ø§Ø°": 7745,
      "Ġuses": 7746,
      "ension": 7747,
      "Ġsettle": 7748,
      "Ġcentre": 7749,
      "Ġconsist": 7750,
      "Ġmovement": 7751,
      "ĠØ¨Ø¶": 7752,
      "ctions": 7753,
      "Ġuncle": 7754,
      "ĠØ§ÙĦØ¥ÙĦÙĥØªØ±": 7755,
      "Ø§Ø²Ø§Øª": 7756,
      "ØªÙģØ¸": 7757,
      "Ġadded": 7758,
      "ĠØ¹Ø§ÙħØ§": 7759,
      "ĠÙħÙĨØµØ©": 7760,
      "ĠÙħÙĨØµØ¨": 7761,
      "ĠØ¥Ø¶Ø§Ùģ": 7762,
      "ĠØ§ÙĦØ±ÙĤ": 7763,
      "ĠRep": 7764,
      "ĠØ§ÙĦÙħØªØŃØ±ÙĥØ©": 7765,
      "Ġeffective": 7766,
      "Ġindustry": 7767,
      "Ġissues": 7768,
      "),": 7769,
      "anda": 7770,
      "ĠØ§ÙĤ": 7771,
      "ĠØ§ÙĦØ¥Ø´": 7772,
      "Ġfloral": 7773,
      "Ġpaint": 7774,
      "ĠØ§ÙĦØ¯Ø§Ø®ÙĦÙĬØ©": 7775,
      "ĠÙĬØŃØªÙģÙĦ": 7776,
      "cer": 7777,
      "ÙĤÙħÙĬØµ": 7778,
      "ĠØ¹ÙħÙĬ": 7779,
      "ĠÙĪÙģÙĤØ§": 7780,
      "ĠØ§ÙĦØ³Ø¨Ø§ØŃØ©": 7781,
      "lam": 7782,
      "ĠØ¨Ø±ÙĥØ©": 7783,
      "Ġdrop": 7784,
      "ĠØ³Ø¬ÙĦ": 7785,
      "ĠØ§ÙĦÙĥÙĩØ±Ø¨": 7786,
      "ĠØ§ÙĦØ®Ø´Ø¨": 7787,
      "Ġconv": 7788,
      "Ġsyn": 7789,
      "ĠØ¨Ø§ÙĦØ¶Ø¨Ø·": 7790,
      "Ġsuggest": 7791,
      "ĠØ§ÙĦØ£ÙĥØ¨Ø±": 7792,
      "ĠØ§ÙĦØ²ÙĪØ¬": 7793,
      "Ġtelling": 7794,
      "ĠØªØ·ÙĬØ±": 7795,
      "ĠÙĬØ£ÙĥÙĦ": 7796,
      "Ġcritic": 7797,
      "Ø¯Ùĥ": 7798,
      "Ø¹ÙĨ": 7799,
      "ĠÙĬÙĤØ¯Ùħ": 7800,
      "ads": 7801,
      "ĠÙĪØ£Ø¨ÙĬØ¶": 7802,
      "Ø®ÙĦØµ": 7803,
      "ĠâĢ«": 7804,
      "bow": 7805,
      "ØµØ¨ÙĬ": 7806,
      "ĠØŃØ±Ùģ": 7807,
      "ĠØ§ÙĦØ¬Ø§ÙħØ¹Ø©": 7808,
      "Ġmeaning": 7809,
      "Don": 7810,
      "itation": 7811,
      "orial": 7812,
      "Ġrare": 7813,
      "Ø³ÙĬÙĦ": 7814,
      "ĠØ·Ø±ÙĤ": 7815,
      "udd": 7816,
      "Ġheadquart": 7817,
      "Ġcheese": 7818,
      "Ġaer": 7819,
      "Ø§ØªÙĩØ§": 7820,
      "ĠØ§ÙĦØ£ÙĤ": 7821,
      "ĠÙĪØ§ÙĦØ¨": 7822,
      "ĠPort": 7823,
      "ĠÙģØ±ÙĨØ³Ø§": 7824,
      "ĠÙħÙĪÙĨ": 7825,
      "Ø¬ÙĪÙĦ": 7826,
      "ĠØ£ÙĨØ¸Ø±": 7827,
      "lymp": 7828,
      "Ġleaf": 7829,
      "Ġskills": 7830,
      "Ġsunglasses": 7831,
      "ÙĨØ²ÙĬØ±": 7832,
      "Ġsch": 7833,
      "itz": 7834,
      "ĠØ§ÙĦØ³Ùģ": 7835,
      "ĠØ¬ÙĬØ±": 7836,
      "aded": 7837,
      "ĠSch": 7838,
      "Ġenergy": 7839,
      "ĠÙħÙĩØ±Ø¬Ø§ÙĨ": 7840,
      "Ġnine": 7841,
      "ĠØ´Ø±ÙĬØ·": 7842,
      "ĠØ§ÙĦÙĤÙħØ©": 7843,
      "Ġbroken": 7844,
      "vin": 7845,
      "ĠØ£Ø¨Ø±": 7846,
      "ĠØªØ®Ø±Ø¬": 7847,
      "Ġhorses": 7848,
      "Ġwear": 7849,
      "ĠØ§ÙĦØ¹ÙĦÙĬØ§": 7850,
      "anded": 7851,
      "Ġreplaced": 7852,
      "ĠÙħÙĦÙģ": 7853,
      "Ġsons": 7854,
      "ĠØ¨ØªØŃ": 7855,
      "eds": 7856,
      "ĠØ¥Ø¯": 7857,
      "Ġunited": 7858,
      "ÙĤØ¨Ø¹Ø©": 7859,
      "ĠRich": 7860,
      "Ġcalling": 7861,
      "ception": 7862,
      "ĠÙħØªØŃÙģ": 7863,
      "ĠÙħÙĨØ´": 7864,
      "ĠØ§ÙĦØ±Ø£Ø³": 7865,
      "Ø§Ø®Øª": 7866,
      "Ġboats": 7867,
      "ĠØ§ÙĦØ¨Ø±ÙĬØ©": 7868,
      "ĠØŃÙĬØ§ØªÙĬ": 7869,
      "ĠSan": 7870,
      "ĠØ§ÙĦÙģÙĤ": 7871,
      "Ġlose": 7872,
      "Ġglad": 7873,
      "Ġprepar": 7874,
      "ĠØ§ÙĦØ§Ø¬ØªÙħØ§Ø¹ÙĬØ©": 7875,
      "Ġopportunity": 7876,
      "ĠØŃØ±Ø¨": 7877,
      "Ġchina": 7878,
      "Ġblank": 7879,
      "Ġrelated": 7880,
      "ĠØ²ÙĪØ¬Ø§ÙĨ": 7881,
      "ĠÙĬØ¹ØªÙĤØ¯": 7882,
      "Ġrich": 7883,
      "Ġsection": 7884,
      "ĠÙĬØ¹ÙĦÙħ": 7885,
      "Ġsteel": 7886,
      "Ġpoints": 7887,
      "ÙĦØ£ÙĨ": 7888,
      "Ø§Ø±ÙĥØ©": 7889,
      "ĠÙĪØ§ÙĦØ±": 7890,
      "ĠAc": 7891,
      "Ġchief": 7892,
      "gricult": 7893,
      "Ġscience": 7894,
      "Ø®Ø·Ø·": 7895,
      "ĠØ§ÙĦØ¥ÙĨØ³Ø§ÙĨ": 7896,
      "Ġstraight": 7897,
      "Ġcases": 7898,
      "ĠÙħÙĨØ§Ø·ÙĤ": 7899,
      "ĠÙĥØ£": 7900,
      "ĠØ®Ùģ": 7901,
      "Ġsearch": 7902,
      "ĠØ§ÙĦÙģÙĨØ¯ÙĤ": 7903,
      "Ø±Ø¬ÙĦØ§ÙĨ": 7904,
      "Ġsett": 7905,
      "ÙħÙĬØ±": 7906,
      "ĠØ¨Øº": 7907,
      "ĠØ¹Ø§Ø¦ÙĦ": 7908,
      "Ġdeg": 7909,
      "ĠØ±Ø£Ø³Ùĩ": 7910,
      "My": 7911,
      "enry": 7912,
      "Ġforms": 7913,
      "Ø³Ø¨Ø§ÙĨÙĬØ©": 7914,
      "ÙĨØ³Ø§Ø¡": 7915,
      "Ġairpl": 7916,
      "ĠÙģØ±ÙĤ": 7917,
      "ĠChurch": 7918,
      "Ġdancing": 7919,
      "ouis": 7920,
      "ĠØ¯Ø§Ø±": 7921,
      "ĠÙħÙĤØ¨Ø±Ø©": 7922,
      "ĠØ§ÙĦØ£ÙĨÙĪØ§Ø¹": 7923,
      "ĠØ£ØŃØ¨Ùĥ": 7924,
      "ĠØ´ÙħØ³ÙĬØ©": 7925,
      "ĠØªØ¨Ø§": 7926,
      "ĠØªÙĤÙĪØ¯": 7927,
      "Ġappoint": 7928,
      "ĠÙĪÙĦÙĥÙĨÙĩ": 7929,
      "ĠØ¯Ø§Ø¦Ø±Ø©": 7930,
      "Ġhoodie": 7931,
      "lished": 7932,
      "Ġmal": 7933,
      "ĠÙĤÙĪØ©": 7934,
      "ĠÙĨÙĬÙĪ": 7935,
      "ĠØ¨Ø§Ø¹Øª": 7936,
      "ĠØ§ÙĦØªØ¯Ø±ÙĬØ¨": 7937,
      "Ø§ÙĨØ¹": 7938,
      "Ġdiamond": 7939,
      "Ġheav": 7940,
      "ÙĪÙģØ©": 7941,
      "No": 7942,
      "xim": 7943,
      "ÙĥÙĪÙĦ": 7944,
      "ÙģØ²": 7945,
      "ĠØªÙħØ±": 7946,
      "ĠØ§ÙĦÙħØ¬ÙĦØ³": 7947,
      "ĠØ³ÙĪÙĤ": 7948,
      "ĠØŃØ³Ø§Ø¨": 7949,
      "ĠÙħØ¹Ø±ÙĪÙģ": 7950,
      "ĠÙĪØ§ÙĦØ°ÙĬ": 7951,
      "keep": 7952,
      "ĠÙĪÙĬØ³Øª": 7953,
      "Ġattention": 7954,
      "Ġdrum": 7955,
      "ĠØªØ£Ø®Ø°": 7956,
      "ĠØŃÙĬØ§ØªÙĥ": 7957,
      "ĠÙĦÙĦØŃØµÙĪÙĦ": 7958,
      "Ġdom": 7959,
      "ĠØ³ÙĬÙģ": 7960,
      "ĠØ¬ÙĬÙĨ": 7961,
      "ĠÙĨØ¨Ø§Øª": 7962,
      "ĠÙĪØ§ÙĦØ·": 7963,
      "ĠØ§ÙĦØ³Ø·ØŃ": 7964,
      "Ġnoted": 7965,
      "ĠØ§ÙĦÙģØ±ÙĨØ³ÙĬØ©": 7966,
      "ĠÙĦØ®": 7967,
      "ØªØ¹Ø§ÙĦ": 7968,
      "ĠØªØµØ¨ØŃ": 7969,
      "ĠØ§Ø¬ØªÙħØ§": 7970,
      "ien": 7971,
      "Ø¹Ø±Ø¶": 7972,
      "ÙĤØ³": 7973,
      "ĠØ³Ø§ØŃØ©": 7974,
      "Ġrow": 7975,
      "ĠØ§ÙĦÙĥØ¨Ø±Ùī": 7976,
      "ĠØ§ÙĦÙģØ±ÙĤ": 7977,
      "ĠØ¨Ø¹Ø¶ÙĩÙħ": 7978,
      "Ġdrug": 7979,
      "Ġfinanc": 7980,
      "Ġeffect": 7981,
      "ĠÙĬØ±ÙĥØ¨": 7982,
      "Ġvegetables": 7983,
      "ÙĪØ§ØµÙĦ": 7984,
      "Ø§ÙĨØ³": 7985,
      "Ø§ÙĨØº": 7986,
      "ĠØ³ÙĤÙģ": 7987,
      "ented": 7988,
      "ĠØªÙģÙĩÙħ": 7989,
      "overed": 7990,
      "ĠØ§ÙĦÙĪØŃÙĬØ¯Ø©": 7991,
      "ĠÙĪØ§Ø¶ØŃ": 7992,
      "Ġboss": 7993,
      "Ø¬Ø§Ø±Ø©": 7994,
      "Ø§Ø¨Ùĩ": 7995,
      "ĠØ§ÙĦØŃØ§ÙĦØ©": 7996,
      "ĠØ§ÙĦØ´ÙĥÙĦ": 7997,
      "ĠØ§ÙĦØ¬Ø³Ø±": 7998,
      "Ġtrouble": 7999,
      "ØªÙģØ§Ø¹": 8000,
      "Ġcreate": 8001,
      "Ġvariety": 8002,
      "ĠIsland": 8003,
      "ĠØ§ÙĦÙħØ«Ø§ÙĦ": 8004,
      "ÙĦÙĬØ³Øª": 8005,
      "Ġexpect": 8006,
      "Ġleader": 8007,
      "Ġtrip": 8008,
      "Ġtwitter": 8009,
      "Ġwelcome": 8010,
      "ĠØ§ÙĦØ£Ø¨": 8011,
      "Ġtransport": 8012,
      "ĠØ¹Ø¶ÙĪØ§": 8013,
      "ĠØ§ÙĦØ³ÙĨÙĪØ§Øª": 8014,
      "Sh": 8015,
      "nel": 8016,
      "ĠØ§ÙĦØ§ÙĦ": 8017,
      "ini": 8018,
      "ĠØªØ²ÙĪØ¬": 8019,
      "ĠCo": 8020,
      "ĠThat": 8021,
      "Ġsmile": 8022,
      "ĠØ§ÙĦØ§Ø¬ØªÙħØ§Ø¹ÙĬ": 8023,
      "ef": 8024,
      "iqu": 8025,
      "ÙħØ´": 8026,
      "ØŃØ³ÙĨ": 8027,
      "Ġmechan": 8028,
      "ĠØ§ÙĦØ®Ø¯ÙħØ§Øª": 8029,
      "Ġspring": 8030,
      "ĠØ¹ÙĦÙĬÙĩÙħ": 8031,
      "ĠÙĪØ§ØŃØ¯Ø§": 8032,
      "Ø¬Ø²Ø¡": 8033,
      "ĠÙħØ§Ø²": 8034,
      "Ġsad": 8035,
      "ĠÙĥØ§": 8036,
      "ÙĦØ¨ÙĬØ©": 8037,
      "ĠØ§ÙĦÙħÙĪØ³ÙĬÙĤÙĬ": 8038,
      "ĠÙħØ¹ÙĦÙĪÙħØ§Øª": 8039,
      "ÙĦØ§ÙĨØ¯": 8040,
      "Ø¹Ø§ÙĨ": 8041,
      "rem": 8042,
      "haps": 8043,
      "ÙĦØ³Øª": 8044,
      "Ġthous": 8045,
      "Ø³Ø§ÙĩÙħ": 8046,
      "Ġboots": 8047,
      "berg": 8048,
      "clus": 8049,
      "ĠØ¯Ø¹ÙĨÙĬ": 8050,
      "ĠAustralia": 8051,
      "Ġspent": 8052,
      "ĠØ§ÙĦØ¯ÙĪÙĦ": 8053,
      "Ġlamp": 8054,
      "ĠØªÙĤÙĦÙĤ": 8055,
      "Ø§ÙĥÙĩØ©": 8056,
      "Ġperforms": 8057,
      "Ġgives": 8058,
      "ÙĨØ§Ùģ": 8059,
      "ĠØŃØ¨": 8060,
      "ĠSun": 8061,
      "Ġspeed": 8062,
      "ĠØ§Ø³ØªØ·ÙĬØ¹": 8063,
      "Ġissue": 8064,
      "ÙħØ¨ÙĬÙĪØªØ±": 8065,
      "Ġtank": 8066,
      "ĠÙħÙĬØ§Ùĩ": 8067,
      "Ġcas": 8068,
      "Ġpump": 8069,
      "Ġaccording": 8070,
      "Ġstudio": 8071,
      "ĠØªÙĪÙĬØªØ±": 8072,
      "Ġdiagram": 8073,
      "Ø®Ø¨": 8074,
      "Ø²ÙħØ©": 8075,
      "ĠØ§ÙĦØ¬Ø±": 8076,
      "ĠØ§ÙĦÙĥÙĦØ¨": 8077,
      "ĠØ£Ø®ÙĬ": 8078,
      "ĠØ§ÙĦØ§ØŃØªÙģ": 8079,
      "Both": 8080,
      "ĠÙģÙĨÙĬØ©": 8081,
      "ĠÙĤØ§ÙĨÙĪÙĨ": 8082,
      "Ġrug": 8083,
      "ÙĢÙĦ": 8084,
      "ÙĤØªÙĩ": 8085,
      "ĠÙĬÙĨØ¨ØºÙĬ": 8086,
      "Ġbelong": 8087,
      "Ġlistening": 8088,
      "Ġcompletely": 8089,
      "fuck": 8090,
      "Ġgift": 8091,
      "Ø±ÙģØ¶": 8092,
      "Ġcommercial": 8093,
      "ĠÙĬÙĩ": 8094,
      "ĠØ³Ø§Ùħ": 8095,
      "ĠØ§ÙĦÙģÙĨØ§Ø¡": 8096,
      "ĠChar": 8097,
      "Ġbottom": 8098,
      "Ġhun": 8099,
      "oop": 8100,
      "Ġconference": 8101,
      "Ġoffers": 8102,
      "Ġdistribut": 8103,
      "ĠØ§ÙĦØ«Ø§ÙĦØ«Ø©": 8104,
      "uke": 8105,
      "ĠØ¨Ø§ÙĦØ«ÙĦØ¬": 8106,
      "Ġcliff": 8107,
      "Ġexplain": 8108,
      "Ġoccup": 8109,
      "Ø³ÙĨØª": 8110,
      "ØµÙĨ": 8111,
      "Ġplaced": 8112,
      "ĠMay": 8113,
      "ĠØ§ÙĦØ±ÙĤØµ": 8114,
      "ĠÙĦÙĥÙĨÙĩØ§": 8115,
      "ÙĩØ¨ÙĬ": 8116,
      "ĠÙģØ±ÙĬ": 8117,
      "ÙĪÙĨÙĩ": 8118,
      "ida": 8119,
      "ola": 8120,
      "Ġshower": 8121,
      "ĠÙĪÙĬÙĦÙĬØ§Ùħ": 8122,
      "shire": 8123,
      "ĠÙģØ¹ÙĦØ§": 8124,
      "Ġtennis": 8125,
      "Ġpig": 8126,
      "ÙĬÙĥØ±ÙĪÙģÙĪÙĨ": 8127,
      "ĠÙħØ´Øº": 8128,
      "ÙĦØªÙĤØ·": 8129,
      "Ġgolf": 8130,
      "ĠØ±Ø¯": 8131,
      "ĠØºÙĦØ§Ùģ": 8132,
      "ĠØªØŃØ§ÙĪÙĦ": 8133,
      "Ø±Ø¬ÙħØ©": 8134,
      "Ġexperi": 8135,
      "ĠØ¨ÙĬØ³Ø¨ÙĪÙĦ": 8136,
      "ĠØ³ÙħÙĬØª": 8137,
      "Ġmob": 8138,
      "Ġworth": 8139,
      "Ġformed": 8140,
      "ĠØ§ÙĦØªØµÙĪÙĬØ±": 8141,
      "ĠÙħØªØ£ÙĥØ¯": 8142,
      "su": 8143,
      "aging": 8144,
      "ĠÙĬØªØ¹ÙĦÙĤ": 8145,
      "ĠØ¨Ø§Ø±ÙĬØ³": 8146,
      "Ġshr": 8147,
      "ĠRes": 8148,
      "ĠØ£ØµØºØ±": 8149,
      "Ġfilms": 8150,
      "ĠØ§ÙĦØ§ÙĨØªØ®Ø§Ø¨Ø§Øª": 8151,
      "Ġbi": 8152,
      "ĠÙĤÙĪÙĦ": 8153,
      "adow": 8154,
      "ĠAre": 8155,
      "ĠÙħØ´ÙĩØ¯": 8156,
      "Ø§ØŃØ¸Ø§Øª": 8157,
      "ĠØ³Ø§Ø¹Ø§Øª": 8158,
      "Ġmeant": 8159,
      "Ø¨Ø§Ùĩ": 8160,
      "Ġmainly": 8161,
      "Ø¯Ø³": 8162,
      "Ġsize": 8163,
      "Ġhop": 8164,
      "Ø´Ø£": 8165,
      "ÙĦÙĬÙĥ": 8166,
      "ĠØ§ÙĦØ¬ÙĪÙĬØ©": 8167,
      "ĠØ§ÙĦÙĤØª": 8168,
      "ÙĪØ³Ø¹": 8169,
      "ĠØ¨ÙĬØ§ÙĨÙĬ": 8170,
      "ØªØ¹Ø§ÙħÙĦ": 8171,
      "ĠØªØ³ÙĬØ±": 8172,
      "ĠÙĦÙĦØ£Ø·ÙģØ§ÙĦ": 8173,
      "ĠÙħÙĥØªÙĪØ¨": 8174,
      "Ġcompetition": 8175,
      "ĠØªÙĪØ¶ÙĬØŃÙĬØ©": 8176,
      "ona": 8177,
      "ĠØ¹Ø§Ø¦": 8178,
      "ĠØ§ÙĦØ¹Ø§ÙĦÙħÙĬ": 8179,
      "ĠØ§ÙĦØ¯Ø§Ø®ÙĦÙĬ": 8180,
      "ÙĪØ¶ØŃ": 8181,
      "ĠØ¹ÙħÙĦÙĩ": 8182,
      "ĠQu": 8183,
      "rat": 8184,
      "Ġwarm": 8185,
      "ĠÙĪØ«": 8186,
      "Ġfan": 8187,
      "ØµØ±Ùģ": 8188,
      "ĠØ´Ø®ØµØ§ÙĨ": 8189,
      "Ġmug": 8190,
      "Ġprovides": 8191,
      "ĠØ§ÙĦÙħÙĨØªØ¬Ø§Øª": 8192,
      "ĠØ§ÙĦØªÙģÙĥÙĬØ±": 8193,
      "ĠØ§ÙĦØªÙĪØ§ØµÙĦ": 8194,
      "ĠÙĪØ°ÙĦÙĥ": 8195,
      "grap": 8196,
      "ĠØªØ¹Ø±ÙģÙĬÙĨ": 8197,
      "ĠÙħÙĩÙħØ§": 8198,
      "Ġsend": 8199,
      "Ġcro": 8200,
      "ĠØ±ØµÙĬÙģ": 8201,
      "Ġabandon": 8202,
      "ledge": 8203,
      "ÙĪÙĦØ§ØªØ©": 8204,
      "Ġestablished": 8205,
      "ĠÙĤÙĦÙĬÙĦ": 8206,
      "ĠØ´Ùĥ": 8207,
      "ĠPol": 8208,
      "ĠÙĬÙĤØ±Ø£": 8209,
      "Ġprep": 8210,
      "ĠØ§ÙĦØ³ÙĬØ§Ø³ÙĬ": 8211,
      "'d": 8212,
      "Ø£Ø®Ø±": 8213,
      "ĠØŃÙĪØ§ÙĦÙĬ": 8214,
      "entle": 8215,
      "irgin": 8216,
      "ims": 8217,
      "ÙħÙĬØ²Ø©": 8218,
      "Ġspread": 8219,
      "ordan": 8220,
      "Ġceiling": 8221,
      "Ġallowed": 8222,
      "ĠØ£ÙĬÙĤÙĪÙĨØ©": 8223,
      "bes": 8224,
      "tell": 8225,
      "enge": 8226,
      "ĠØ´ÙĬØ¦": 8227,
      "Ġcompos": 8228,
      "Ġoffered": 8229,
      "Ø±Ø¬Ø¹": 8230,
      "ĠÙħØµØ±": 8231,
      "ĠØ§ÙĦÙĨÙĬ": 8232,
      "Ø§Ø¦ÙĩØ§": 8233,
      "ĠBel": 8234,
      "ĠØ³ØªÙģØ¹ÙĦ": 8235,
      "Ġpromise": 8236,
      "ĠØ§ÙĦØ§ØªØŃØ§Ø¯": 8237,
      "ÙĪÙĬØ¯": 8238,
      "ĠØ¨Ø¹ÙħÙĦ": 8239,
      "Ġpit": 8240,
      "ÙĨØ§Ø¯Ø§": 8241,
      "ixt": 8242,
      "icago": 8243,
      "Ø²Ø²": 8244,
      "ĠØ§ÙĦØ¬ÙĦÙĬØ¯": 8245,
      "ÙĬØªÙĪÙĨ": 8246,
      "ĠØ§ÙĦØ±ÙħØ§ÙĦ": 8247,
      "Ø®Ø±ÙĬØ©": 8248,
      "Ġspeaking": 8249,
      "aked": 8250,
      "ĠØ§ÙĦÙĬÙĪÙĨ": 8251,
      "Ġmissing": 8252,
      "Ġinstead": 8253,
      "iation": 8254,
      "ĠX": 8255,
      "ÙĬÙħÙĬ": 8256,
      "ĠÙħØ°Ùĩ": 8257,
      "Ġmunic": 8258,
      "ĠØ±ÙģØ§ÙĤ": 8259,
      "ØªÙħØ«Ø§ÙĦ": 8260,
      "Ġexcell": 8261,
      "Ġappre": 8262,
      "Ġtor": 8263,
      "Ġsau": 8264,
      "ĠØ¹Ø±Ø¨Ø©": 8265,
      "ĠØ¥Ø¹Ø¯Ø§Ø¯": 8266,
      "Ġheavy": 8267,
      "ÙĦÙĬÙĤ": 8268,
      "ÙĢØ©": 8269,
      "Ø§Ø²ÙĨ": 8270,
      "iano": 8271,
      "Ø¥ÙĨÙĩÙħ": 8272,
      "ĠØ´Ø®ØµØ§": 8273,
      "Ġkept": 8274,
      "Ġincreased": 8275,
      "ĠØ£ÙĦÙħØ§ÙĨÙĬØ§": 8276,
      "Ġkidding": 8277,
      "bb": 8278,
      "Ø±Ø§Ø¶": 8279,
      "Ġhuge": 8280,
      "ĠCour": 8281,
      "ĠØ§ÙĦÙĥÙħØ¨ÙĬÙĪØªØ±": 8282,
      "ĠÙħØ¬ÙħÙĪØ¹Ø§Øª": 8283,
      "ĠÙħØ³Ø¤": 8284,
      "Ġnewspaper": 8285,
      "Ġsan": 8286,
      "ĠÙĦÙĪØ³": 8287,
      "ØŃØ§ÙĪÙĦ": 8288,
      "Ø®Ùħ": 8289,
      "ĠØµØ®Ø±Ø©": 8290,
      "illa": 8291,
      "ĠCemetery": 8292,
      "Ġscient": 8293,
      "Ġoverl": 8294,
      "icted": 8295,
      "ancy": 8296,
      "Ġopened": 8297,
      "Ø´Ø§ÙĬØ±": 8298,
      "ĠÙħØ¹ÙĬØ´Ø©": 8299,
      "ĠÙħØ¹ÙĨØ§": 8300,
      "ĠØ§ÙĦØ³ÙĬØ¯Ø©": 8301,
      "Ġcontinues": 8302,
      "ĠØ§ÙĦÙĤØ±Ø§Ø±": 8303,
      "Ġculture": 8304,
      "fr": 8305,
      "ĠØ¨Ø¨": 8306,
      "Ø§ØªÙħ": 8307,
      "Ø´Ø¬Ø±Ø©": 8308,
      "ĠØ³ÙħØ§": 8309,
      "ota": 8310,
      "ĠÙĨÙħÙĪØ°Ø¬": 8311,
      "Ġwhatever": 8312,
      "ĠDon": 8313,
      "ĠØ£Ø³ØªÙħØªØ¹": 8314,
      "ĠÙĪØ§ÙĤÙģØ©": 8315,
      "ala": 8316,
      "ĠØ§ÙĦÙħÙħÙĥÙĨ": 8317,
      "ĠØ¬Ø³Ùħ": 8318,
      "Ø·ÙĬØ§Øª": 8319,
      "Ġnumerous": 8320,
      "ĠØ³ÙĦØ§ØŃ": 8321,
      "Ġinterview": 8322,
      "ĠØ§ÙĦØªØ¹Ø§ÙħÙĦ": 8323,
      "ĠÙĬØ³ÙĬØ±ÙĪÙĨ": 8324,
      "Ġequip": 8325,
      "Ġnorthern": 8326,
      "ĠÙĩØ§Øª": 8327,
      "ĠØ·ÙĬ": 8328,
      "Ø³ÙĥØ±ÙĬ": 8329,
      "fast": 8330,
      "Ø§ÙĦØ¥": 8331,
      "arf": 8332,
      "ÙĪÙĨØ¬": 8333,
      "ĠØ§ÙĦØ£ÙĪØ±Ø§ÙĤ": 8334,
      "ĠØ§ÙĦØ§ÙĪÙĦ": 8335,
      "Ġvehicle": 8336,
      "la": 8337,
      "ÙĤØ§Ø¦ÙĤ": 8338,
      "Ø¬Ø§Ùĥ": 8339,
      "Ġdouble": 8340,
      "ĠMet": 8341,
      "Ġhonest": 8342,
      "Ġsteps": 8343,
      "oons": 8344,
      "ÙĦØ§ÙĨ": 8345,
      "ĠÙħØ³ØªØ®": 8346,
      "Ġweather": 8347,
      "ĠØ§ÙĦØ¹ÙĪØ¯Ø©": 8348,
      "ĠØ§ÙĦØŃØ±ÙĥØ©": 8349,
      "ĠSoc": 8350,
      "ĠÙĪØ§Ø¶ØŃØ©": 8351,
      "Ġsort": 8352,
      "ĠØŃØ´Ø¯": 8353,
      "ĠØ§ÙĦØºØ§Ø¨Ø§Øª": 8354,
      "Ġevidence": 8355,
      "Ġ30": 8356,
      "ĠØªÙģØ¹ÙĦÙĩ": 8357,
      "ĠÙħÙĪØ§ÙĤØ¹": 8358,
      "Ġrepe": 8359,
      "Ġactress": 8360,
      "Ġaircraft": 8361,
      "ĠÙĪØ¨Ø±": 8362,
      "Ġforces": 8363,
      "ØªÙħØª": 8364,
      "Ġprec": 8365,
      "Ġmarriage": 8366,
      "Ø¯ÙĬÙħÙĬØ©": 8367,
      "Ġpassed": 8368,
      "ØŃØ¶Ø±": 8369,
      "Ø§Ø±ÙĤ": 8370,
      "ĠÙĨÙĬÙĥ": 8371,
      "ĠØ´ÙĤÙĬÙĤ": 8372,
      "olk": 8373,
      "Ġcode": 8374,
      "Ġscared": 8375,
      "ĠØ§ÙĦØ³ÙĦØ§Ùħ": 8376,
      "ĠÙħÙĪØª": 8377,
      "ÙĬØ±Ùĥ": 8378,
      "Ø³ØªÙĬ": 8379,
      "ĠÙĦÙĦØªØŃ": 8380,
      "ĠØµÙĨ": 8381,
      "ĠØ§ÙĦØ´Ø§ÙĬ": 8382,
      "ĠØ§ÙĦÙĤÙĪØ©": 8383,
      "ĠHill": 8384,
      "Ġparking": 8385,
      "Ġfighting": 8386,
      "ii": 8387,
      "ÙĨÙĪØ§ÙĨ": 8388,
      "ÙĩØ²Ø©": 8389,
      "ĠØªÙĪÙģØ±": 8390,
      "ĠØ¹Ø¸": 8391,
      "Ø¥Ø°ÙĨ": 8392,
      "How": 8393,
      "ij": 8394,
      "Ġdoub": 8395,
      "Ġtow": 8396,
      "irm": 8397,
      "semb": 8398,
      "ĠØµØ¯": 8399,
      "ĠReg": 8400,
      "ĠÙĦÙĪÙĬØ³": 8401,
      "Ġrequire": 8402,
      "ĠØ§ÙĦØ§ÙĤØªØµØ§Ø¯": 8403,
      "ache": 8404,
      "ears": 8405,
      "ĠGeorge": 8406,
      "Ġess": 8407,
      "err": 8408,
      "ĠÙģÙĪÙĦ": 8409,
      "Ø«Ø§": 8410,
      "ĠØ±ÙĬØªØ´": 8411,
      "ĠØ§ÙĦØŃÙģÙĦ": 8412,
      "Ø±Ø§Ø³": 8413,
      "Ġasking": 8414,
      "ÙĤÙĬÙĬÙħ": 8415,
      "Ġdoesn": 8416,
      "To": 8417,
      "Ġmis": 8418,
      "Ġthreat": 8419,
      "ĠØ§ÙĦØ³Ø§Ø¯": 8420,
      "thanks": 8421,
      "ounds": 8422,
      "Ġcollabor": 8423,
      "Ġsouthern": 8424,
      "hab": 8425,
      "ÙĤØ§Ø·Ø¹Ø©": 8426,
      "atives": 8427,
      "ĠÙĨØ§Ø¬": 8428,
      "Ġdock": 8429,
      "ĠÙĬØŃØªØ§Ø¬": 8430,
      "Ø¨Ø§ÙĦØ·Ø¨Ø¹": 8431,
      "ĠØ§ÙĦØªØŃØ¯ÙĬØ§Øª": 8432,
      "ĠRoad": 8433,
      "Ġmultiple": 8434,
      "Ġmotorcycle": 8435,
      "bu": 8436,
      "ĠÙħÙħØ«ÙĦ": 8437,
      "ĠØªØ²": 8438,
      "ĠØ±ÙĪØ¨Ø±": 8439,
      "Ø³Ø±ÙĬØ±": 8440,
      "ĠØ§ÙĨØªØ¸Ø±": 8441,
      "ĠÙĦØ£ÙĬ": 8442,
      "ÙģØ§Ø¹ÙĦ": 8443,
      "ĠIndian": 8444,
      "rete": 8445,
      "ÙĪØ§Ø©": 8446,
      "ĠMost": 8447,
      "ĠØ³ÙĬØ¦Ø©": 8448,
      "Ġhelped": 8449,
      "Ġmovies": 8450,
      "ĠØµØ¯ÙĬÙĤÙĬ": 8451,
      "Ġx": 8452,
      "ÙĪÙĩØ°Ø§": 8453,
      "Ġlion": 8454,
      "ĠÙħÙĨØ·": 8455,
      "ications": 8456,
      "iring": 8457,
      "ĠSec": 8458,
      "Ø±ØªÙĩ": 8459,
      "ÙĢÙĨ": 8460,
      "Ġloves": 8461,
      "ĠÙĬØŃØµÙĦ": 8462,
      "Ġequipment": 8463,
      "ufact": 8464,
      "ÙĤØ¨Ø§ÙĦ": 8465,
      "Ø·ÙĦØ©": 8466,
      "ĠØ§ÙĦÙĨØ§Ø±ÙĬØ©": 8467,
      "ĠØ§ÙĦØ¨ÙĪ": 8468,
      "icks": 8469,
      "ĠÙĬØ¹ÙĪØ¯": 8470,
      "ĠØ±Ø§Ø¦Ø¹Ø§": 8471,
      "Ġitems": 8472,
      "ĠØŃÙħ": 8473,
      "ĠØ§ÙĦØ§Ø¹ÙĦØ§Ùħ": 8474,
      "Ġshoulder": 8475,
      "Ġelection": 8476,
      "Ġpers": 8477,
      "adian": 8478,
      "ooper": 8479,
      "Ġvia": 8480,
      "ĠÙĬØªØ¸Ø§ÙĩØ±": 8481,
      "ĠÙħØ³Ø§ØŃØ©": 8482,
      "Ġhappens": 8483,
      "ĠØ§ÙĦÙħØ³ØªØ´ÙģÙī": 8484,
      "Ġairplane": 8485,
      "ĠMont": 8486,
      "Ġshel": 8487,
      "ressed": 8488,
      "Ġcontract": 8489,
      "ĠØ±ÙĬØ§Ø¶ÙĬØ©": 8490,
      "ÙĤØ³Ùħ": 8491,
      "ĠÙħÙĪØ¶ÙĪØ¹": 8492,
      "erved": 8493,
      "Ġfort": 8494,
      "ĠØ§ÙĬÙĨ": 8495,
      "Ø³Ø¨Ø§Ø¨": 8496,
      "ĠÙħØŃØ±Ùĥ": 8497,
      "Ġcrew": 8498,
      "Ġvalley": 8499,
      "Ġportra": 8500,
      "ĠØ§ÙĦÙĨØª": 8501,
      "ĠØ¨Ø§Ø±Ùĥ": 8502,
      "omen": 8503,
      "ĠÙĤÙĩÙĪØ©": 8504,
      "ĠRoy": 8505,
      "ÙĤØªØ±ØŃ": 8506,
      "Ġcarried": 8507,
      "Ġskin": 8508,
      "ĠØ§ÙĦÙĨØ§Ø¯ÙĬ": 8509,
      "ĠÙĬØ¯Ùĩ": 8510,
      "Ġmatt": 8511,
      "ĠØŃØ¬Ø±ÙĬ": 8512,
      "Ø¸Ø§Ø¦Ùģ": 8513,
      "Ġrap": 8514,
      "Ø¬ÙĦÙĪØ³": 8515,
      "Ġjoy": 8516,
      "ysis": 8517,
      "ĠÙĪÙĤÙħÙĬØµ": 8518,
      "cket": 8519,
      "ĠØ§ÙĦØ°Ùī": 8520,
      "ÙĤÙĦÙĬØ©": 8521,
      "ĠÙĦØ£ÙĪÙĦ": 8522,
      "ĠØŃÙĤÙĬÙĤÙĬ": 8523,
      "ĠØŃØ¯ÙĬØ¯": 8524,
      "ØºØ§ÙĦØ¨Ø§": 8525,
      "ĠÙħØ¹ÙĦÙĤ": 8526,
      "ĠØªØŃØ±Ùĥ": 8527,
      "Ġupd": 8528,
      "Ġfinally": 8529,
      "ĠØ§ÙĦØ¬ÙĨÙĪØ¨ÙĬ": 8530,
      "ga": 8531,
      "Ø¦Øª": 8532,
      "ĠØ§ÙĦØ®Øµ": 8533,
      "Ø§Ø®Ø±": 8534,
      "Ġshell": 8535,
      "ĠÙĦÙĥÙĬ": 8536,
      "ĠÙĦØŃÙħ": 8537,
      "Ġcaptain": 8538,
      "Ġmaintain": 8539,
      "Ġaudience": 8540,
      "Be": 8541,
      "oys": 8542,
      "ĠØ§ÙĦØºÙĬÙĪÙħ": 8543,
      "Ġindian": 8544,
      "ĠØ§ÙĦØ¨Ø±Ø§Ø²": 8545,
      "ĠØ¨Ø³ÙĩÙĪÙĦØ©": 8546,
      "ĠGreen": 8547,
      "ademy": 8548,
      "nic": 8549,
      "ĠØªØ¨ØªØ³Ùħ": 8550,
      "Ġstairs": 8551,
      "Ø±Ø§ÙĤ": 8552,
      "Ġloved": 8553,
      "mond": 8554,
      "Ø§Ø³Ø©": 8555,
      "inary": 8556,
      "ĠMal": 8557,
      "ĠBay": 8558,
      "ĠØ¨ÙĬØ¹": 8559,
      "ĠÙĪÙĥÙĦ": 8560,
      "Ø´Ùĥ": 8561,
      "Ø´Ø¹Ø§Ø±": 8562,
      "Ġyoud": 8563,
      "ĠØ±Ùĥ": 8564,
      "ĠØ§ÙĦØ³ÙģÙĨ": 8565,
      "antic": 8566,
      "ĠØ§ÙĦÙĤÙĪØ§Øª": 8567,
      "ĠØªØ¬Ø§": 8568,
      "ĠÙħØ¯Ø®ÙĦ": 8569,
      "ĠÙħÙĨØ§Ø³Ø¨": 8570,
      "ĠØ¹Ø±ÙģØª": 8571,
      "ĠØ§ÙĦÙĪØ¬Ùĩ": 8572,
      "irts": 8573,
      "ĠCr": 8574,
      "Ø±ÙģÙĬ": 8575,
      "ĠØ§ÙĦÙħÙĦØ§Ø¨Ø³": 8576,
      "Ġeffort": 8577,
      "Ġsolution": 8578,
      "ÙħØ±ÙĥØ²": 8579,
      "ĠØ§ÙĦÙħØ³ØªØ®Ø¯Ùħ": 8580,
      "ÙĬÙĦØ§ÙĨØ¯": 8581,
      "ĠRoman": 8582,
      "ĠØ¨Ø¬ÙĪØ§Ø±": 8583,
      "ĠStreet": 8584,
      "Ø²ÙĩØ±Ø©": 8585,
      "Ġleaders": 8586,
      "arrow": 8587,
      "ĠÙĦØ§Ùħ": 8588,
      "Ġded": 8589,
      "Ġrule": 8590,
      "ĠØµØ¹Ø¨": 8591,
      "ĠOther": 8592,
      "Ġreports": 8593,
      "ĠÙĩÙĨØ§ÙĦÙĥ": 8594,
      "ĠÙħØŃÙħÙĪÙĦ": 8595,
      "ĠÙħÙĤØ·": 8596,
      "ishes": 8597,
      "ĠØ¹Ø²ÙĬØ²ÙĬ": 8598,
      "Ø¶Ø¨": 8599,
      "ÙĪØ¬ÙĬÙĩ": 8600,
      "Ġsunny": 8601,
      "Ġregard": 8602,
      "ĠØ§ÙĦØ±Ø³ÙħÙĬ": 8603,
      "ĠØ¨ØªÙģ": 8604,
      "Ø£ÙĦÙģ": 8605,
      "ÙģØªØ§Øª": 8606,
      "Ġcollect": 8607,
      "ĠØ§ÙĦØ§ØªØµØ§ÙĦ": 8608,
      "cr": 8609,
      "woman": 8610,
      "ĠÙĪØªØ¹": 8611,
      "ĠÙĬÙĪÙħØ§": 8612,
      "ĠÙģÙĬØ³Ø¨": 8613,
      "acks": 8614,
      "ildren": 8615,
      "ĠÙħØ³ØªÙĦÙĤ": 8616,
      "Ġtim": 8617,
      "rees": 8618,
      "ØŃÙĪÙĦ": 8619,
      "ĠØ£ÙģÙĥØ±": 8620,
      "ĠÙħÙģÙĩÙĪÙħ": 8621,
      "Ġproperty": 8622,
      "ĠØ§ÙĦÙħÙĩØ±Ø¬Ø§ÙĨ": 8623,
      "ĠØŃØ§ÙĨØ©": 8624,
      "ĠØ§ÙĦØ·Ø§Ø¨ÙĤ": 8625,
      "Ġquar": 8626,
      "Ø¨Ø¹Ø§Ø¯": 8627,
      "ĠØ¯Ø¹ÙĨØ§": 8628,
      ")!": 8629,
      "ĠØŃØ§ÙħÙĦ": 8630,
      "ĠØŃØ²Ø¨": 8631,
      "ĠØµÙĦ": 8632,
      "ighter": 8633,
      "Ġimag": 8634,
      "Ġrecently": 8635,
      "ĠØ§ÙĦÙħØ¹Ø·ÙĬØ§Øª": 8636,
      "Ø±Ø§ÙģÙĬØ©": 8637,
      "Ġappreci": 8638,
      "ĠØ§ÙĦØ¹Ø¶": 8639,
      "Ø¯Ø§Ø©": 8640,
      "Ġenem": 8641,
      "actor": 8642,
      "Ġserves": 8643,
      "Ġideas": 8644,
      "Ġwrites": 8645,
      "ĠØ£Ø¶ÙĪØ§Ø¡": 8646,
      "Ġindividual": 8647,
      "ØªÙĪØ¬Ø¯": 8648,
      "Ġtheory": 8649,
      "ĠØ§ÙĦØ´ÙĪØ§Ø±Ø¹": 8650,
      "Ø²ÙĬØ¹": 8651,
      "ĠØ³Ø£Ø°ÙĩØ¨": 8652,
      "ĠØ§ÙĦØ£ÙĨØ´Ø·Ø©": 8653,
      "ĠThanks": 8654,
      "ĠØ§ÙĦØªØ§Ø±ÙĬØ®ÙĬØ©": 8655,
      "ĠÙħØ¹Ø±Ø¶": 8656,
      "Ġslim": 8657,
      "Ø£Ø¹Ø·": 8658,
      "ĠØªÙĤØ¯": 8659,
      "uty": 8660,
      "ĠØ§ÙĦØ´Ø±ÙĤ": 8661,
      "ĠØ§ÙĦØ´Ø±ÙĤÙĬØ©": 8662,
      "ĠØ§ÙĦØ³ÙĥÙĥ": 8663,
      "ÙĪÙģØ§": 8664,
      "Ø·ÙĬØ·": 8665,
      "ÙĪØ¹Ø§Ø¡": 8666,
      "ĠØ¸ÙĨ": 8667,
      "Ø¸ÙħØ§Øª": 8668,
      "Ġbicycle": 8669,
      "oly": 8670,
      "ĠØ£ÙģÙĦØ§Ùħ": 8671,
      "icate": 8672,
      "Ġquality": 8673,
      "ĠØ¨Ø±ØªÙĤØ§ÙĦÙĬ": 8674,
      "Ġborder": 8675,
      "ÙĪØ¯ÙĬÙĪ": 8676,
      "Ø¯Ø¯Ø©": 8677,
      "ĠØ±ÙģØ¹": 8678,
      "Ġvot": 8679,
      "Ġdefe": 8680,
      "Ø¯Ø±Ø¬Ø©": 8681,
      "Ø§Ø´Ø§Øª": 8682,
      "Ø´Ø±Ø·Ø©": 8683,
      "Ø³ÙĥÙĪ": 8684,
      "Ø±Ùħ": 8685,
      "ĠØ§ÙĦÙħÙĤØ±": 8686,
      "ĠØ±ÙĪØŃ": 8687,
      "ĠÙĪØ§ÙĦØ£Ø³": 8688,
      "Ġusers": 8689,
      "Ġforeign": 8690,
      "ĠQue": 8691,
      "Ġwestern": 8692,
      "ingu": 8693,
      "ĠØ¬Ø§Ø¦Ø²Ø©": 8694,
      "ĠØ´Ø¨Ùĩ": 8695,
      "utive": 8696,
      "Ø®ØµÙĪØµ": 8697,
      "Ġresort": 8698,
      "leted": 8699,
      "ÙħÙĪØ³ÙĬÙĤÙī": 8700,
      "ĠÙģØ§Øª": 8701,
      "ĠØªØ¤Ø¯ÙĬ": 8702,
      "ĠÙĥØ§Ø¨": 8703,
      "ĠÙĦÙĦÙĪ": 8704,
      "ulf": 8705,
      "Ġlif": 8706,
      "ĠØ´ÙĬÙĥ": 8707,
      "ibr": 8708,
      "Ġbrothers": 8709,
      "ĠØ§ÙĦØ¯Ø±Ø§Ø¬Ø§Øª": 8710,
      "Ġenhanced": 8711,
      "ÙĨØ§Øª": 8712,
      "Ø¯ÙĬØ¯Ø§": 8713,
      "ĠÙĤÙĦÙĤ": 8714,
      "ĠØ´Ø§Ø±": 8715,
      "Ġconvers": 8716,
      "ancis": 8717,
      "nament": 8718,
      "Ġfans": 8719,
      "Ġyork": 8720,
      "ĠØ³ÙĬØª": 8721,
      "ado": 8722,
      "ĠØ§ÙĦØªÙĥ": 8723,
      "ĠTo": 8724,
      "Ġwhoa": 8725,
      "azz": 8726,
      "ĠØ§ÙĦÙħØ³Ø¤": 8727,
      "Ġautom": 8728,
      "ĠJapanese": 8729,
      "Ġ#": 8730,
      "ĠØ£Ø³Ùħ": 8731,
      "Ø®Ùģ": 8732,
      "Ø±ÙĬÙĤÙĬ": 8733,
      "Ġrice": 8734,
      "Ø®ØµØµØ©": 8735,
      "tered": 8736,
      "Ġbroke": 8737,
      "ĠØ§ÙĦÙħÙĪØ¬ÙĪØ¯Ø©": 8738,
      "ĠTownship": 8739,
      "rey": 8740,
      "ĠØ£Ø³Ø±Ø¹": 8741,
      "ĠÙĤØ§Ø¹Ø¯Ø©": 8742,
      "ĠØ§ÙĦØ¨Ø±ÙĬØ¯": 8743,
      "ÙĦÙĤØ§Øª": 8744,
      "Ġsomebody": 8745,
      "ĠJames": 8746,
      "ĠØ§Ø³ÙħÙĩØ§": 8747,
      "Ġ).": 8748,
      "Ġprimary": 8749,
      "ÙĨØº": 8750,
      "ĠØ£ØªØŃØ¯Ø«": 8751,
      "iti": 8752,
      "Ø¬Ø§Ø¨Ø©": 8753,
      "Ġfed": 8754,
      "ĠÙĥÙĩØ±Ø¨": 8755,
      "Ġrules": 8756,
      "Ø¬ÙĦØ¨": 8757,
      "ĠØ§ÙĦÙĤÙĦÙĬÙĦ": 8758,
      "ĠØ§ÙĦØ£Ø³ÙħØ§Ùĥ": 8759,
      "ĠÙĦØ£ÙĨÙĩ": 8760,
      "Thanks": 8761,
      "ĠÙĦØ´Ø±ÙĥØ©": 8762,
      "Ġclothing": 8763,
      "Ġwonderful": 8764,
      "hest": 8765,
      "Ġstraw": 8766,
      "Ġways": 8767,
      "ĠÙĪØ¨Ø¹Ø¯": 8768,
      "ĠBlack": 8769,
      "ĠØ§ÙĨÙĥÙĦÙĬØ²ÙĬ": 8770,
      "Ġtools": 8771,
      "ĠÙĪØ¹Ø¯": 8772,
      "Ġfab": 8773,
      "Ġgentle": 8774,
      "stop": 8775,
      "Ø§Ø¨ÙĬØ¹": 8776,
      "ĠCouncil": 8777,
      "Ø³Ø¨ÙĪÙĦ": 8778,
      "Ø¯ÙĪØ¡": 8779,
      "Ø´Ø±Ø§Øª": 8780,
      "Ġannual": 8781,
      "ĠØ±Ø¬ÙĦØ§": 8782,
      "Ġhung": 8783,
      "ĠÙĨÙĪØ§ÙģØ°": 8784,
      "ĠØ±ÙĪØ¨": 8785,
      "ÙħÙĦØª": 8786,
      "Ġguard": 8787,
      "ĠÙħÙĨØ¹": 8788,
      "olute": 8789,
      "ulations": 8790,
      "Ø±Ø¨Øª": 8791,
      "ĠØ¥ÙĨÙĥ": 8792,
      "ĠÙĪÙĬØŃ": 8793,
      "Ġprojects": 8794,
      "atoes": 8795,
      "Tom": 8796,
      "Ø¬ÙħÙĬØ¹": 8797,
      "Ġpun": 8798,
      "ĠØ§ÙĦÙħØ¹Ùħ": 8799,
      "ĠÙĦÙĦØ¯": 8800,
      "ĠØ¯ÙĤØ§Ø¦ÙĤ": 8801,
      "ĠØ§ÙĦÙĤØ§Ø¦ÙħØ©": 8802,
      "ĠParty": 8803,
      "ĠDuring": 8804,
      "Ġapproach": 8805,
      "ØªØ²": 8806,
      "ĠÙģØ§": 8807,
      "iment": 8808,
      "Ġshaped": 8809,
      "ÙĬØ¯Ø±": 8810,
      "Ġarg": 8811,
      "ÙĥÙĪÙĨØ§Øª": 8812,
      "ĠJack": 8813,
      "ĠØ§ÙĦÙħØ¹Ø±ÙĪ": 8814,
      "ĠØ£Ø±Ø¬ÙĪØ§ÙĨÙĬØ©": 8815,
      "Ġcutting": 8816,
      "ĠAmerica": 8817,
      "ĠØ§ÙĦÙħØ·Ø§Ùģ": 8818,
      "ÙħØ±Ø©": 8819,
      "ÙĨÙĤ": 8820,
      "Ø§ÙĦØ®": 8821,
      "ĠØ£ÙĥØ±Ùĩ": 8822,
      "ĠÙĬØ¶Ø¹": 8823,
      "ĠØ±ØŃÙĦØ©": 8824,
      "Ø¤ÙĬØ©": 8825,
      "Ø¨Ø§Ùĥ": 8826,
      "Ġsculpture": 8827,
      "ÙĥØ§Ùħ": 8828,
      "ĠØ§ÙĦØªÙĤÙĦÙĬØ¯ÙĬØ©": 8829,
      "Ġlabel": 8830,
      "ĠÙģÙĬØ³Ø¨ÙĪÙĥ": 8831,
      "aud": 8832,
      "boy": 8833,
      "ario": 8834,
      "Ø¨ÙģØ¶ÙĦ": 8835,
      "Ġsale": 8836,
      "Ø·Ø§Ø¦Ø±": 8837,
      "ĠØ§ÙĦØ£Ø¯Ø§Ø¡": 8838,
      "Ġconstit": 8839,
      "Ġhows": 8840,
      "Ġworkers": 8841,
      "Ġserve": 8842,
      "Ġskyline": 8843,
      "ĠÙĨØŃØªØ§Ø¬": 8844,
      "Ġarrested": 8845,
      "ĠØ§ÙĦÙĪÙĤ": 8846,
      "Ġbrief": 8847,
      "Ġuser": 8848,
      "ÙĪÙĥØ©": 8849,
      "Ġcontact": 8850,
      "ĠØªØªØ¶ÙħÙĨ": 8851,
      "ĠØ·Ø¨Ø¹Ø©": 8852,
      "Ġeggs": 8853,
      "Ġdaily": 8854,
      "Ġimmediately": 8855,
      "Ø§ØŃÙĬ": 8856,
      "Ø§Ø·Ø§": 8857,
      "Ø§Ø·Ø±": 8858,
      "ĠPer": 8859,
      "ÙħÙĪØ²": 8860,
      "Ø¹ÙħØ¯Ø©": 8861,
      "ĠØ§ÙĦØ¥Øµ": 8862,
      "ĠØ§ÙĦÙħØ³Ø§Ø±": 8863,
      "ĠÙĬÙħØ«ÙĦ": 8864,
      "Ġdial": 8865,
      "Ġharm": 8866,
      "ĠÙĩÙĬØ±": 8867,
      "Ġiron": 8868,
      "Ġweird": 8869,
      "ĠØ§ÙĦÙĦØ¬": 8870,
      "ĠØ¬ÙĬÙħØ³": 8871,
      "Ġdepic": 8872,
      "ĠClub": 8873,
      "Ġcopy": 8874,
      "den": 8875,
      "Ġpsy": 8876,
      "Ġdry": 8877,
      "ĠÙħØ¹Ø²": 8878,
      "ĠÙĦÙĦÙĩ": 8879,
      "ĠØ§ÙĦØ±ÙħØ§": 8880,
      "Ġroute": 8881,
      "ĠÙĪØ§Ø´": 8882,
      "Ġfle": 8883,
      "ĠØ¹Ø§Ø²Ùģ": 8884,
      "Ġgh": 8885,
      "Ġfrench": 8886,
      "ĠØ§ÙĦØ³Ø¬Ø§Ø¯Ø©": 8887,
      "Ġchain": 8888,
      "ĠØ§ÙĦÙħÙĨØ§Ø²ÙĦ": 8889,
      "ĠØ§ÙĦØ®Ø§Ø±Ø¬ÙĬØ©": 8890,
      "ounced": 8891,
      "ĠØ§ÙĦØ¨Ø±ÙĬØ·Ø§ÙĨÙĬØ©": 8892,
      "ĠInternational": 8893,
      "Ø¬ÙħÙĪØ¹Ø©": 8894,
      "ician": 8895,
      "ĠØ¬Ø³": 8896,
      "Ġvac": 8897,
      "ĠØ§ÙĦØºØ§ÙĦØ¨": 8898,
      "vas": 8899,
      "ÙĤØ§Ø±": 8900,
      "ĠÙĩÙī": 8901,
      "Ġrib": 8902,
      "ĠØ§ÙĦÙĨØ´": 8903,
      "Ġmanufact": 8904,
      "Ø§ÙĥÙĬ": 8905,
      "Ġlisted": 8906,
      "Ġsociety": 8907,
      "Ø³Ø³": 8908,
      "ĠØªØµÙĦ": 8909,
      "ÙĪØ±ÙĪ": 8910,
      "Ġpray": 8911,
      "ĠØŃÙĬÙĪØ§ÙĨ": 8912,
      "Ġrailway": 8913,
      "isher": 8914,
      "ĠØ¨Ø±ÙĬØ·": 8915,
      "ĠØ§ÙĦÙħÙĪØ§Ø¯": 8916,
      "Ġyard": 8917,
      "Ġgate": 8918,
      "Ġaltern": 8919,
      "ĠØ§ÙĦÙģÙĨÙĬØ©": 8920,
      "ĠØ§ÙĦØªØµÙħÙĬÙħ": 8921,
      "Ġfloors": 8922,
      "ĠÙĦØ§Ø¨Ø¯": 8923,
      "hot": 8924,
      "ĠØ¹Ø±ÙĪØ³": 8925,
      "Ġjer": 8926,
      "ĠÙĪÙĥØ°ÙĦÙĥ": 8927,
      "Ġtemple": 8928,
      "Ġfailure": 8929,
      "Ġneckl": 8930,
      "with": 8931,
      "ÙĬØ§Ø¡": 8932,
      "ĠØ§ÙĦÙħØ³ÙĦØ³ÙĦ": 8933,
      "Ø£ÙĦØ§": 8934,
      "ĠØ¥ÙĬØ±": 8935,
      "ĠØ¯ÙģÙĨ": 8936,
      "Ø§Ø·ÙĬ": 8937,
[...]
